{
  "version": "1.0",
  "truncation": null,
  "padding": null,
  "added_tokens": [
    {
      "id": 0,
      "content": "<pad>",
      "single_word": false,
      "lstrip": false,
      "rstrip": false,
      "normalized": false,
      "special": true
    },
    {
      "id": 1,
      "content": "<bos>",
      "single_word": false,
      "lstrip": false,
      "rstrip": false,
      "normalized": false,
      "special": true
    },
    {
      "id": 2,
      "content": "<eos>",
      "single_word": false,
      "lstrip": false,
      "rstrip": false,
      "normalized": false,
      "special": true
    },
    {
      "id": 3,
      "content": "<reserved_0>",
      "single_word": false,
      "lstrip": false,
      "rstrip": false,
      "normalized": false,
      "special": true
    },
    {
      "id": 4,
      "content": "<reserved_1>",
      "single_word": false,
      "lstrip": false,
      "rstrip": false,
      "normalized": false,
      "special": true
    },
    {
      "id": 5,
      "content": "<reserved_2>",
      "single_word": false,
      "lstrip": false,
      "rstrip": false,
      "normalized": false,
      "special": true
    },
    {
      "id": 6,
      "content": "<reserved_3>",
      "single_word": false,
      "lstrip": false,
      "rstrip": false,
      "normalized": false,
      "special": true
    },
    {
      "id": 7,
      "content": "<reserved_4>",
      "single_word": false,
      "lstrip": false,
      "rstrip": false,
      "normalized": false,
      "special": true
    },
    {
      "id": 8,
      "content": "<reserved_5>",
      "single_word": false,
      "lstrip": false,
      "rstrip": false,
      "normalized": false,
      "special": true
    },
    {
      "id": 9,
      "content": "<reserved_6>",
      "single_word": false,
      "lstrip": false,
      "rstrip": false,
      "normalized": false,
      "special": true
    },
    {
      "id": 10,
      "content": "<reserved_7>",
      "single_word": false,
      "lstrip": false,
      "rstrip": false,
      "normalized": false,
      "special": true
    },
    {
      "id": 11,
      "content": "<reserved_8>",
      "single_word": false,
      "lstrip": false,
      "rstrip": false,
      "normalized": false,
      "special": true
    },
    {
      "id": 12,
      "content": "<reserved_9>",
      "single_word": false,
      "lstrip": false,
      "rstrip": false,
      "normalized": false,
      "special": true
    },
    {
      "id": 13,
      "content": "<reserved_10>",
      "single_word": false,
      "lstrip": false,
      "rstrip": false,
      "normalized": false,
      "special": true
    },
    {
      "id": 14,
      "content": "<reserved_11>",
      "single_word": false,
      "lstrip": false,
      "rstrip": false,
      "normalized": false,
      "special": true
    },
    {
      "id": 15,
      "content": "<reserved_12>",
      "single_word": false,
      "lstrip": false,
      "rstrip": false,
      "normalized": false,
      "special": true
    },
    {
      "id": 16,
      "content": "<reserved_13>",
      "single_word": false,
      "lstrip": false,
      "rstrip": false,
      "normalized": false,
      "special": true
    },
    {
      "id": 17,
      "content": "<reserved_14>",
      "single_word": false,
      "lstrip": false,
      "rstrip": false,
      "normalized": false,
      "special": true
    },
    {
      "id": 18,
      "content": "<reserved_15>",
      "single_word": false,
      "lstrip": false,
      "rstrip": false,
      "normalized": false,
      "special": true
    },
    {
      "id": 19,
      "content": "<reserved_16>",
      "single_word": false,
      "lstrip": false,
      "rstrip": false,
      "normalized": false,
      "special": true
    },
    {
      "id": 20,
      "content": "<reserved_17>",
      "single_word": false,
      "lstrip": false,
      "rstrip": false,
      "normalized": false,
      "special": true
    },
    {
      "id": 21,
      "content": "<reserved_18>",
      "single_word": false,
      "lstrip": false,
      "rstrip": false,
      "normalized": false,
      "special": true
    },
    {
      "id": 22,
      "content": "<reserved_19>",
      "single_word": false,
      "lstrip": false,
      "rstrip": false,
      "normalized": false,
      "special": true
    },
    {
      "id": 23,
      "content": "<reserved_20>",
      "single_word": false,
      "lstrip": false,
      "rstrip": false,
      "normalized": false,
      "special": true
    },
    {
      "id": 24,
      "content": "<reserved_21>",
      "single_word": false,
      "lstrip": false,
      "rstrip": false,
      "normalized": false,
      "special": true
    },
    {
      "id": 25,
      "content": "<reserved_22>",
      "single_word": false,
      "lstrip": false,
      "rstrip": false,
      "normalized": false,
      "special": true
    },
    {
      "id": 26,
      "content": "<reserved_23>",
      "single_word": false,
      "lstrip": false,
      "rstrip": false,
      "normalized": false,
      "special": true
    },
    {
      "id": 27,
      "content": "<reserved_24>",
      "single_word": false,
      "lstrip": false,
      "rstrip": false,
      "normalized": false,
      "special": true
    },
    {
      "id": 28,
      "content": "<reserved_25>",
      "single_word": false,
      "lstrip": false,
      "rstrip": false,
      "normalized": false,
      "special": true
    },
    {
      "id": 29,
      "content": "<reserved_26>",
      "single_word": false,
      "lstrip": false,
      "rstrip": false,
      "normalized": false,
      "special": true
    },
    {
      "id": 30,
      "content": "<reserved_27>",
      "single_word": false,
      "lstrip": false,
      "rstrip": false,
      "normalized": false,
      "special": true
    },
    {
      "id": 31,
      "content": "<reserved_28>",
      "single_word": false,
      "lstrip": false,
      "rstrip": false,
      "normalized": false,
      "special": true
    }
  ],
  "normalizer": null,
  "pre_tokenizer": {
    "type": "ByteLevel",
    "add_prefix_space": false,
    "trim_offsets": true,
    "use_regex": true
  },
  "post_processor": {
    "type": "TemplateProcessing",
    "single": [
      {
        "SpecialToken": {
          "id": "<bos>",
          "type_id": 0
        }
      },
      {
        "Sequence": {
          "id": "A",
          "type_id": 0
        }
      },
      {
        "SpecialToken": {
          "id": "<eos>",
          "type_id": 0
        }
      }
    ],
    "pair": [
      {
        "SpecialToken": {
          "id": "<bos>",
          "type_id": 0
        }
      },
      {
        "Sequence": {
          "id": "A",
          "type_id": 0
        }
      },
      {
        "SpecialToken": {
          "id": "<eos>",
          "type_id": 0
        }
      },
      {
        "Sequence": {
          "id": "B",
          "type_id": 1
        }
      },
      {
        "SpecialToken": {
          "id": "<eos>",
          "type_id": 1
        }
      }
    ],
    "special_tokens": {
      "<bos>": {
        "id": "<bos>",
        "ids": [
          1
        ],
        "tokens": [
          "<bos>"
        ]
      },
      "<eos>": {
        "id": "<eos>",
        "ids": [
          2
        ],
        "tokens": [
          "<eos>"
        ]
      }
    }
  },
  "decoder": {
    "type": "ByteLevel",
    "add_prefix_space": true,
    "trim_offsets": true,
    "use_regex": true
  },
  "model": {
    "type": "BPE",
    "dropout": null,
    "unk_token": null,
    "continuing_subword_prefix": null,
    "end_of_word_suffix": null,
    "fuse_unk": false,
    "byte_fallback": true,
    "ignore_merges": false,
    "vocab": {
      "<pad>": 0,
      "<bos>": 1,
      "<eos>": 2,
      "<reserved_0>": 3,
      "<reserved_1>": 4,
      "<reserved_2>": 5,
      "<reserved_3>": 6,
      "<reserved_4>": 7,
      "<reserved_5>": 8,
      "<reserved_6>": 9,
      "<reserved_7>": 10,
      "<reserved_8>": 11,
      "<reserved_9>": 12,
      "<reserved_10>": 13,
      "<reserved_11>": 14,
      "<reserved_12>": 15,
      "<reserved_13>": 16,
      "<reserved_14>": 17,
      "<reserved_15>": 18,
      "<reserved_16>": 19,
      "<reserved_17>": 20,
      "<reserved_18>": 21,
      "<reserved_19>": 22,
      "<reserved_20>": 23,
      "<reserved_21>": 24,
      "<reserved_22>": 25,
      "<reserved_23>": 26,
      "<reserved_24>": 27,
      "<reserved_25>": 28,
      "<reserved_26>": 29,
      "<reserved_27>": 30,
      "<reserved_28>": 31,
      "!": 32,
      "\"": 33,
      "#": 34,
      "$": 35,
      "%": 36,
      "&": 37,
      "'": 38,
      "(": 39,
      ")": 40,
      "*": 41,
      "+": 42,
      ",": 43,
      "-": 44,
      ".": 45,
      "/": 46,
      "0": 47,
      "1": 48,
      "2": 49,
      "3": 50,
      "4": 51,
      "5": 52,
      "6": 53,
      "7": 54,
      "8": 55,
      "9": 56,
      ":": 57,
      ";": 58,
      "<": 59,
      "=": 60,
      ">": 61,
      "?": 62,
      "@": 63,
      "A": 64,
      "B": 65,
      "C": 66,
      "D": 67,
      "E": 68,
      "F": 69,
      "G": 70,
      "H": 71,
      "I": 72,
      "J": 73,
      "K": 74,
      "L": 75,
      "M": 76,
      "N": 77,
      "O": 78,
      "P": 79,
      "Q": 80,
      "R": 81,
      "S": 82,
      "T": 83,
      "U": 84,
      "V": 85,
      "W": 86,
      "X": 87,
      "Y": 88,
      "Z": 89,
      "[": 90,
      "\\": 91,
      "]": 92,
      "^": 93,
      "_": 94,
      "`": 95,
      "a": 96,
      "b": 97,
      "c": 98,
      "d": 99,
      "e": 100,
      "f": 101,
      "g": 102,
      "h": 103,
      "i": 104,
      "j": 105,
      "k": 106,
      "l": 107,
      "m": 108,
      "n": 109,
      "o": 110,
      "p": 111,
      "q": 112,
      "r": 113,
      "s": 114,
      "t": 115,
      "u": 116,
      "v": 117,
      "w": 118,
      "x": 119,
      "y": 120,
      "z": 121,
      "{": 122,
      "|": 123,
      "}": 124,
      "~": 125,
      "¡": 126,
      "¢": 127,
      "£": 128,
      "¤": 129,
      "¥": 130,
      "¦": 131,
      "§": 132,
      "¨": 133,
      "©": 134,
      "ª": 135,
      "«": 136,
      "¬": 137,
      "®": 138,
      "¯": 139,
      "°": 140,
      "±": 141,
      "²": 142,
      "³": 143,
      "´": 144,
      "µ": 145,
      "¶": 146,
      "·": 147,
      "¸": 148,
      "¹": 149,
      "º": 150,
      "»": 151,
      "¼": 152,
      "½": 153,
      "¾": 154,
      "¿": 155,
      "À": 156,
      "Á": 157,
      "Â": 158,
      "Ã": 159,
      "Ä": 160,
      "Å": 161,
      "Æ": 162,
      "Ç": 163,
      "È": 164,
      "É": 165,
      "Ê": 166,
      "Ë": 167,
      "Ì": 168,
      "Í": 169,
      "Î": 170,
      "Ï": 171,
      "Ð": 172,
      "Ñ": 173,
      "Ò": 174,
      "Ó": 175,
      "Ô": 176,
      "Õ": 177,
      "Ö": 178,
      "×": 179,
      "Ø": 180,
      "Ù": 181,
      "Ú": 182,
      "Û": 183,
      "Ü": 184,
      "Ý": 185,
      "Þ": 186,
      "ß": 187,
      "à": 188,
      "á": 189,
      "â": 190,
      "ã": 191,
      "ä": 192,
      "å": 193,
      "æ": 194,
      "ç": 195,
      "è": 196,
      "é": 197,
      "ê": 198,
      "ë": 199,
      "ì": 200,
      "í": 201,
      "î": 202,
      "ï": 203,
      "ð": 204,
      "ñ": 205,
      "ò": 206,
      "ó": 207,
      "ô": 208,
      "õ": 209,
      "ö": 210,
      "÷": 211,
      "ø": 212,
      "ù": 213,
      "ú": 214,
      "û": 215,
      "ü": 216,
      "ý": 217,
      "þ": 218,
      "ÿ": 219,
      "Ā": 220,
      "ā": 221,
      "Ă": 222,
      "ă": 223,
      "Ą": 224,
      "ą": 225,
      "Ć": 226,
      "ć": 227,
      "Ĉ": 228,
      "ĉ": 229,
      "Ċ": 230,
      "ċ": 231,
      "Č": 232,
      "č": 233,
      "Ď": 234,
      "ď": 235,
      "Đ": 236,
      "đ": 237,
      "Ē": 238,
      "ē": 239,
      "Ĕ": 240,
      "ĕ": 241,
      "Ė": 242,
      "ė": 243,
      "Ę": 244,
      "ę": 245,
      "Ě": 246,
      "ě": 247,
      "Ĝ": 248,
      "ĝ": 249,
      "Ğ": 250,
      "ğ": 251,
      "Ġ": 252,
      "ġ": 253,
      "Ģ": 254,
      "ģ": 255,
      "Ĥ": 256,
      "ĥ": 257,
      "Ħ": 258,
      "ħ": 259,
      "Ĩ": 260,
      "ĩ": 261,
      "Ī": 262,
      "ī": 263,
      "Ĭ": 264,
      "ĭ": 265,
      "Į": 266,
      "į": 267,
      "İ": 268,
      "ı": 269,
      "Ĳ": 270,
      "ĳ": 271,
      "Ĵ": 272,
      "ĵ": 273,
      "Ķ": 274,
      "ķ": 275,
      "ĸ": 276,
      "Ĺ": 277,
      "ĺ": 278,
      "Ļ": 279,
      "ļ": 280,
      "Ľ": 281,
      "ľ": 282,
      "Ŀ": 283,
      "ŀ": 284,
      "Ł": 285,
      "ł": 286,
      "Ń": 287,
      "Ġt": 288,
      "in": 289,
      "he": 290,
      "Ġa": 291,
      "ĠĠ": 292,
      "ĠĠĠĠ": 293,
      "er": 294,
      "on": 295,
      "re": 296,
      "Ġthe": 297,
      "at": 298,
      "Ġs": 299,
      "en": 300,
      "or": 301,
      "Ġw": 302,
      "it": 303,
      "es": 304,
      "is": 305,
      "Ġo": 306,
      "ĠĠĠĠĠĠĠĠ": 307,
      "an": 308,
      "Ġc": 309,
      "ed": 310,
      "ĠĠĠ": 311,
      "al": 312,
      "ar": 313,
      "ing": 314,
      "Ġf": 315,
      "Ġp": 316,
      "nd": 317,
      "Ġb": 318,
      "ou": 319,
      "Ġof": 320,
      "ic": 321,
      "ion": 322,
      "Ġin": 323,
      "le": 324,
      "Ġm": 325,
      "as": 326,
      "Ġand": 327,
      "Ġto": 328,
      "Ġd": 329,
      "ro": 330,
      "Ġh": 331,
      "et": 332,
      "ent": 333,
      "st": 334,
      "ct": 335,
      "Ġth": 336,
      "Ġn": 337,
      "el": 338,
      "il": 339,
      "ĠĠĠĠĠĠĠ": 340,
      "om": 341,
      "am": 342,
      "Ġre": 343,
      "Ġl": 344,
      "id": 345,
      "ut": 346,
      "im": 347,
      "ĠS": 348,
      "ad": 349,
      "Ġe": 350,
      "ur": 351,
      "ol": 352,
      "ot": 353,
      "ĠI": 354,
      "ĠT": 355,
      "Ġg": 356,
      "Ġ=": 357,
      "ce": 358,
      "--": 359,
      "us": 360,
      "ĠĠĠĠĠĠĠĠĠĠĠ": 361,
      "ve": 362,
      "ig": 363,
      "ĠA": 364,
      "ation": 365,
      "ow": 366,
      "ĠC": 367,
      "ly": 368,
      "ch": 369,
      "ver": 370,
      "ul": 371,
      "ay": 372,
      "Ġis": 373,
      "Ġbe": 374,
      "//": 375,
      "Ġfor": 376,
      "se": 377,
      "Ġst": 378,
      "Ġon": 379,
      "em": 380,
      "od": 381,
      "if": 382,
      "ter": 383,
      "Ġ(": 384,
      "ir": 385,
      "ith": 386,
      "ag": 387,
      "un": 388,
      "âĢ": 389,
      "Ġhe": 390,
      "ĠM": 391,
      "Ġy": 392,
      "Ġ1": 393,
      "ate": 394,
      "ri": 395,
      "um": 396,
      "Ġv": 397,
      "Ġ\"": 398,
      "Ġthat": 399,
      "ra": 400,
      "Ġas": 401,
      "Ġwith": 402,
      "Ġ{": 403,
      "est": 404,
      "pe": 405,
      "ab": 406,
      "Ġwas": 407,
      "čĊ": 408,
      "ew": 409,
      "Ġit": 410,
      "ĠP": 411,
      "Ġwh": 412,
      "ĠB": 413,
      "and": 414,
      "ĉĉ": 415,
      "ist": 416,
      "ck": 417,
      "th": 418,
      ");": 419,
      "Ġcon": 420,
      "Ġan": 421,
      "Ġal": 422,
      "Ġ}": 423,
      "ub": 424,
      "Ġyou": 425,
      "qu": 426,
      "ess": 427,
      "00": 428,
      "ame": 429,
      "ĠH": 430,
      "her": 431,
      "ers": 432,
      "ĠD": 433,
      "res": 434,
      "pp": 435,
      "ht": 436,
      "Ġpro": 437,
      "ĠĠĠĠĠĠĠĠĠĠĠĠĠĠĠ": 438,
      "ĠThe": 439,
      "pt": 440,
      "os": 441,
      "ort": 442,
      "ĠR": 443,
      "end": 444,
      "ect": 445,
      "ld": 446,
      "Ġ2": 447,
      "ĠL": 448,
      "nt": 449,
      "ill": 450,
      "ore": 451,
      "ain": 452,
      "ke": 453,
      "ĠF": 454,
      "Ġat": 455,
      "Ġcom": 456,
      "Ġde": 457,
      "ex": 458,
      "ĠW": 459,
      "ity": 460,
      "rom": 461,
      "op": 462,
      "Ġor": 463,
      "Ġby": 464,
      "ĠG": 465,
      "----": 466,
      "ue": 467,
      "lo": 468,
      "Ġex": 469,
      "Ġthis": 470,
      "ĠE": 471,
      "lic": 472,
      "Ġr": 473,
      "art": 474,
      "ment": 475,
      "iv": 476,
      "ĠN": 477,
      "Ġare": 478,
      "all": 479,
      "Ġ//": 480,
      "Ġse": 481,
      "ant": 482,
      "our": 483,
      "ave": 484,
      "Ġnot": 485,
      "ight": 486,
      "ure": 487,
      "Ġ<": 488,
      "Ġfrom": 489,
      "ction": 490,
      "age": 491,
      "oc": 492,
      "ies": 493,
      "per": 494,
      "ive": 495,
      "ary": 496,
      "âĢĻ": 497,
      "ĠO": 498,
      "Ġu": 499,
      "Ġsh": 500,
      "ud": 501,
      "ard": 502,
      "ine": 503,
      "ial": 504,
      "ring": 505,
      "Ġch": 506,
      "Ġhis": 507,
      "ust": 508,
      "iz": 509,
      "ass": 510,
      "urn": 511,
      "ac": 512,
      "()": 513,
      "Ġus": 514,
      "ell": 515,
      "out": 516,
      "ult": 517,
      "ould": 518,
      "ich": 519,
      "'s": 520,
      "ind": 521,
      "ge": 522,
      "able": 523,
      "ap": 524,
      "ĠĠĠĠĠĠĠĠĠĠĠĠĠĠĠĠ": 525,
      "rou": 526,
      "ff": 527,
      "ack": 528,
      "og": 529,
      "Ġwe": 530,
      "Ġhave": 531,
      "ublic": 532,
      "ast": 533,
      "ost": 534,
      "are": 535,
      "imp": 536,
      "Ġle": 537,
      "St": 538,
      "The": 539,
      "ĠJ": 540,
      "ok": 541,
      "\",": 542,
      "ext": 543,
      "orm": 544,
      "ont": 545,
      "Ġif": 546,
      "ip": 547,
      "Ġnew": 548,
      "ile": 549,
      "ated": 550,
      "Ġ$": 551,
      "ere": 552,
      "ong": 553,
      "ire": 554,
      "In": 555,
      "Ġsu": 556,
      "ak": 557,
      "int": 558,
      "cl": 559,
      "av": 560,
      "Ġk": 561,
      "ide": 562,
      "**": 563,
      "Ġ0": 564,
      "Ġpl": 565,
      "ome": 566,
      "yst": 567,
      "ice": 568,
      "ime": 569,
      "Ġ///": 570,
      "ber": 571,
      "Ġ-": 572,
      "ĠU": 573,
      "Ġwhich": 574,
      "Ġint": 575,
      "ord": 576,
      "Ġtr": 577,
      "turn": 578,
      "Ġwhe": 579,
      "pl": 580,
      "Ġall": 581,
      "ase": 582,
      "Ġcl": 583,
      "Ġ3": 584,
      "ear": 585,
      "Ġhad": 586,
      "ans": 587,
      "ions": 588,
      "Ġcan": 589,
      "ork": 590,
      "ystem": 591,
      "Ġbut": 592,
      "cc": 593,
      "ace": 594,
      "ous": 595,
      "Ġpublic": 596,
      "Ġab": 597,
      "ib": 598,
      "ep": 599,
      "ype": 600,
      "gh": 601,
      "ject": 602,
      "Ġj": 603,
      "ĠSt": 604,
      "Ġwere": 605,
      "01": 606,
      "ance": 607,
      "ther": 608,
      "==": 609,
      "Ġres": 610,
      "act": 611,
      "so": 612,
      "Ġme": 613,
      "ĠIn": 614,
      "ata": 615,
      "ical": 616,
      "ite": 617,
      "Ġad": 618,
      "ry": 619,
      "ild": 620,
      "Ġdo": 621,
      "ence": 622,
      "Ġcont": 623,
      "Ġcomp": 624,
      "ĠĠĠĠĠĠĠĠĠĠĠĠĠĠĠĠĠĠĠ": 625,
      "Ġun": 626,
      "ount": 627,
      "ef": 628,
      "Ġ19": 629,
      "(\"": 630,
      "Ġ[": 631,
      "ign": 632,
      "one": 633,
      "ec": 634,
      "Ġup": 635,
      "--------": 636,
      "Ġhas": 637,
      "Ġso": 638,
      "erv": 639,
      "ĠV": 640,
      "..": 641,
      "ory": 642,
      "ia": 643,
      "ress": 644,
      "ull": 645,
      "Ġgo": 646,
      "ath": 647,
      "Ġ*": 648,
      "ang": 649,
      "Ġout": 650,
      "ake": 651,
      "Ġen": 652,
      "Ġher": 653,
      "Ġtheir": 654,
      "Ġwill": 655,
      "ĠK": 656,
      "Ġone": 657,
      "Ġthey": 658,
      "Ġ_": 659,
      "ll": 660,
      "Ġval": 661,
      "Ġreturn": 662,
      "Ġar": 663,
      "ition": 664,
      "),": 665,
      "Ġwho": 666,
      "ĠâĢ": 667,
      "ru": 668,
      "ode": 669,
      "ĠĠĠĠĠ": 670,
      "ach": 671,
      "ound": 672,
      "Ġman": 673,
      "com": 674,
      "own": 675,
      "ens": 676,
      "ations": 677,
      "du": 678,
      "very": 679,
      "ĠTh": 680,
      "ail": 681,
      "ov": 682,
      "ert": 683,
      ").": 684,
      "##": 685,
      "Ġyour": 686,
      "Ġget": 687,
      "con": 688,
      "ie": 689,
      "iew": 690,
      "ook": 691,
      "form": 692,
      "ents": 693,
      "the": 694,
      "sum": 695,
      "ual": 696,
      "get": 697,
      "fer": 698,
      "ish": 699,
      "te": 700,
      "Ġover": 701,
      "Ġne": 702,
      "Ġmy": 703,
      "riv": 704,
      "row": 705,
      "aram": 706,
      "ool": 707,
      "ph": 708,
      "Ġper": 709,
      "ree": 710,
      "Ġ'": 711,
      "Ġmore": 712,
      "=\"": 713,
      "ft": 714,
      "Ġsp": 715,
      "elf": 716,
      "Ġbeen": 717,
      "Ġdis": 718,
      "reat": 719,
      "ption": 720,
      "import": 721,
      "ely": 722,
      "irst": 723,
      "Ġqu": 724,
      "ĠIt": 725,
      "ĠCh": 726,
      "Ġother": 727,
      "ark": 728,
      "ener": 729,
      "hed": 730,
      "Ġvar": 731,
      "Ġpart": 732,
      "Ġev": 733,
      "ob": 734,
      "Ġhim": 735,
      "ings": 736,
      "Ġsc": 737,
      "pon": 738,
      "ose": 739,
      "old": 740,
      "Ġthem": 741,
      "Ġsa": 742,
      "Ġpre": 743,
      "Ġag": 744,
      "Ġset": 745,
      "rib": 746,
      "Ġwhen": 747,
      "ian": 748,
      "fter": 749,
      "vel": 750,
      "</": 751,
      "ors": 752,
      "Ġ\\": 753,
      "Ġshe": 754,
      "();": 755,
      "ĠHe": 756,
      "mary": 757,
      "using": 758,
      "ove": 759,
      "Ġits": 760,
      "ss": 761,
      "ĠSystem": 762,
      "Ġinter": 763,
      "Ġthere": 764,
      "Ġ:": 765,
      "eth": 766,
      "Ġtime": 767,
      "Ġkn": 768,
      "ng": 769,
      "low": 770,
      "Ġro": 771,
      "eg": 772,
      "Ġalso": 773,
      "âĢĿ": 774,
      "li": 775,
      "Ġwork": 776,
      "wo": 777,
      "Ġwould": 778,
      "Ġapp": 779,
      "vers": 780,
      "summary": 781,
      "Ġ4": 782,
      "Ex": 783,
      "nder": 784,
      "ize": 785,
      "ater": 786,
      "Pro": 787,
      "ty": 788,
      "ays": 789,
      "Ġli": 790,
      "Ġ|": 791,
      "rit": 792,
      "Ġfun": 793,
      "ade": 794,
      "amp": 795,
      "ĠY": 796,
      "ick": 797,
      "Ġ5": 798,
      "Ġabout": 799,
      "Ġ+": 800,
      "Name": 801,
      "ug": 802,
      "Ġob": 803,
      "we": 804,
      "ict": 805,
      "Ġthen": 806,
      "\")": 807,
      "ces": 808,
      "ink": 809,
      "lect": 810,
      "Ġyear": 811,
      "mer": 812,
      "Ġinto": 813,
      "oint": 814,
      "Ġno": 815,
      "uild": 816,
      "odel": 817,
      "ps": 818,
      "Ġfirst": 819,
      "Cont": 820,
      "pec": 821,
      "Ġany": 822,
      "Ġsome": 823,
      "Ġdes": 824,
      "rivate": 825,
      "ally": 826,
      "Type": 827,
      "clud": 828,
      ".\"": 829,
      "sh": 830,
      "Ġ201": 831,
      "eld": 832,
      "alue": 833,
      "Ġte": 834,
      "Ġthan": 835,
      "Ġname": 836,
      "ax": 837,
      "les": 838,
      "ne": 839,
      "iss": 840,
      "ious": 841,
      "tt": 842,
      "Ġclass": 843,
      "wn": 844,
      "vent": 845,
      "dd": 846,
      "ates": 847,
      "Ġam": 848,
      "use": 849,
      "Ġour": 850,
      "ĉĉĉ": 851,
      "Ġend": 852,
      "app": 853,
      "Ġcomm": 854,
      "Com": 855,
      "up": 856,
      "Id": 857,
      "ys": 858,
      "Ġtwo": 859,
      "ix": 860,
      "====": 861,
      "igh": 862,
      "cre": 863,
      "ER": 864,
      "to": 865,
      "ied": 866,
      "nc": 867,
      "ON": 868,
      "ific": 869,
      "Ġoff": 870,
      "Ġind": 871,
      "put": 872,
      "Re": 873,
      "Th": 874,
      "Ġstring": 875,
      "Con": 876,
      "Ġcol": 877,
      "erm": 878,
      "ield": 879,
      "io": 880,
      "eb": 881,
      "of": 882,
      "Ġacc": 883,
      "Ġonly": 884,
      "ĠĊ": 885,
      "ning": 886,
      "itt": 887,
      "oid": 888,
      "Ġrec": 889,
      "Ġunder": 890,
      "ram": 891,
      "Ġsaid": 892,
      "Ġpe": 893,
      "ĠĠĠĠĠĠĠĠĠĠĠĠĠĠĠĠĠĠĠĠĠĠĠ": 894,
      "Ġprivate": 895,
      "Ġfe": 896,
      "Ġbec": 897,
      "Ġpr": 898,
      "Ġbet": 899,
      "pect": 900,
      "red": 901,
      "Ġafter": 902,
      "To": 903,
      "param": 904,
      "Ġ&": 905,
      "atic": 906,
      "It": 907,
      "))": 908,
      "Res": 909,
      "ough": 910,
      "Ġwhat": 911,
      "tern": 912,
      "port": 913,
      "ĠâĢľ": 914,
      "che": 915,
      "aw": 916,
      "ton": 917,
      "Col": 918,
      "ĠUn": 919,
      "der": 920,
      "Ġadd": 921,
      "Ġ</": 922,
      "ange": 923,
      "Ġmay": 924,
      "Ġatt": 925,
      "Ġlike": 926,
      "IN": 927,
      "Ġco": 928,
      "Ġnull": 929,
      "oth": 930,
      "ars": 931,
      "ource": 932,
      "ced": 933,
      "fore": 934,
      "Ġ.": 935,
      "ics": 936,
      "ĠThis": 937,
      "round": 938,
      "Ġimp": 939,
      "pro": 940,
      "ribut": 941,
      "set": 942,
      "ise": 943,
      "Ch": 944,
      "lement": 945,
      "Ġloc": 946,
      "Ġact": 947,
      "als": 948,
      "rough": 949,
      "Data": 950,
      "air": 951,
      "****": 952,
      "ock": 953,
      "ient": 954,
      "Ġtra": 955,
      "----------------": 956,
      "Get": 957,
      "Ġ==": 958,
      "ward": 959,
      "ased": 960,
      "Ġwhere": 961,
      "ames": 962,
      "urre": 963,
      "Ġhow": 964,
      "\">": 965,
      "ful": 966,
      "pos": 967,
      "Ġrem": 968,
      "Ġsub": 969,
      "ife": 970,
      "Ġdef": 971,
      "Ġreg": 972,
      "sp": 973,
      "ood": 974,
      "'t": 975,
      "ox": 976,
      "fig": 977,
      "ble": 978,
      "ms": 979,
      "ows": 980,
      "Ġpos": 981,
      "10": 982,
      "read": 983,
      "Ġmost": 984,
      "led": 985,
      "Ġinst": 986,
      "self": 987,
      "ople": 988,
      "alse": 989,
      "ervice": 990,
      "Ġcould": 991,
      "lection": 992,
      "Ġ200": 993,
      "ular": 994,
      "ause": 995,
      "ative": 996,
      "Ġ6": 997,
      "Ġthese": 998,
      "Ġra": 999,
      "sc": 1000,
      "Ġass": 1001,
      "Ġdif": 1002,
      "ities": 1003,
      "ract": 1004,
      "ĉĉĉĉ": 1005,
      "son": 1006,
      "ank": 1007,
      "ask": 1008,
      "atch": 1009,
      "Ġem": 1010,
      "20": 1011,
      "tr": 1012,
      "Ġ18": 1013,
      "other": 1014,
      "uch": 1015,
      "land": 1016,
      "Ġplay": 1017,
      "Ġinclud": 1018,
      "ev": 1019,
      "ator": 1020,
      "let": 1021,
      "umber": 1022,
      "ible": 1023,
      "ating": 1024,
      "Ġent": 1025,
      "Ġel": 1026,
      "Ġjust": 1027,
      "Ġthrough": 1028,
      "Ġshould": 1029,
      "Ġi": 1030,
      "Ġvery": 1031,
      "uring": 1032,
      "Ġwell": 1033,
      "ily": 1034,
      "Ġsuch": 1035,
      "ational": 1036,
      "eng": 1037,
      "ethod": 1038,
      "Ġstud": 1039,
      "Ġprov": 1040,
      "pr": 1041,
      "Ġagain": 1042,
      ",\"": 1043,
      "ond": 1044,
      "orld": 1045,
      "Ġke": 1046,
      "resent": 1047,
      "Value": 1048,
      "ey": 1049,
      "Ġresult": 1050,
      "String": 1051,
      "ility": 1052,
      "Ġcall": 1053,
      "Ġtrue": 1054,
      "Ġback": 1055,
      "cess": 1056,
      "List": 1057,
      "quest": 1058,
      "Ġ/": 1059,
      "ception": 1060,
      "Ġvoid": 1061,
      "Ġ8": 1062,
      "ited": 1063,
      "Ġread": 1064,
      "ider": 1065,
      "arch": 1066,
      "Ġuse": 1067,
      "ash": 1068,
      "ower": 1069,
      "olog": 1070,
      "ons": 1071,
      "ollow": 1072,
      "Ġsee": 1073,
      "hen": 1074,
      "Ġspec": 1075,
      "Ġsupp": 1076,
      "Add": 1077,
      "pen": 1078,
      "its": 1079,
      "ĠCom": 1080,
      "roup": 1081,
      "ES": 1082,
      "az": 1083,
      "Ġpeople": 1084,
      "ren": 1085,
      "ices": 1086,
      "Ġdid": 1087,
      "ures": 1088,
      "ner": 1089,
      "ins": 1090,
      "ident": 1091,
      "Ġlong": 1092,
      "urrent": 1093,
      "Ar": 1094,
      "Ġnow": 1095,
      "Ġmade": 1096,
      "Set": 1097,
      "ser": 1098,
      "Ġ=>": 1099,
      "any": 1100,
      "cal": 1101,
      "ĠAr": 1102,
      "``": 1103,
      "Ġneed": 1104,
      "Ġgreat": 1105,
      "Ġknow": 1106,
      "Ġrel": 1107,
      "Ġim": 1108,
      "://": 1109,
      "Ġ00": 1110,
      "Ġcre": 1111,
      "ĠPro": 1112,
      "Ġcons": 1113,
      "this": 1114,
      "arg": 1115,
      "irect": 1116,
      "AR": 1117,
      "string": 1118,
      "ween": 1119,
      "Ġsm": 1120,
      "Ġyears": 1121,
      "uth": 1122,
      "cy": 1123,
      "co": 1124,
      "Ġform": 1125,
      "19": 1126,
      "Ġph": 1127,
      "Ġmake": 1128,
      "man": 1129,
      "und": 1130,
      "ather": 1131,
      "Ġtrans": 1132,
      "Ġprodu": 1133,
      "Text": 1134,
      "Ġac": 1135,
      "inal": 1136,
      "ffect": 1137,
      "Ġbefore": 1138,
      "ues": 1139,
      "essage": 1140,
      "Ġdist": 1141,
      "ouse": 1142,
      "Ġmany": 1143,
      "Ġused": 1144,
      "Ġlook": 1145,
      "raw": 1146,
      "Ġevery": 1147,
      "000": 1148,
      "ray": 1149,
      "gan": 1150,
      "Ġconst": 1151,
      "fo": 1152,
      "ror": 1153,
      "Ġvalue": 1154,
      "ever": 1155,
      "ãģ": 1156,
      "ĠWe": 1157,
      "way": 1158,
      "AT": 1159,
      "ault": 1160,
      "ght": 1161,
      "ages": 1162,
      "12": 1163,
      "Ġown": 1164,
      "Ġhand": 1165,
      "Ġfound": 1166,
      "View": 1167,
      "Ġ7": 1168,
      "Ġinv": 1169,
      "ier": 1170,
      "OR": 1171,
      "oy": 1172,
      "perty": 1173,
      "ĠCon": 1174,
      "ines": 1175,
      "Ġ--": 1176,
      "ruct": 1177,
      "As": 1178,
      "ery": 1179,
      "ature": 1180,
      "name": 1181,
      "ined": 1182,
      "EN": 1183,
      "Ġdown": 1184,
      "Ġ@": 1185,
      "Ġbeing": 1186,
      "ember": 1187,
      "Ġbetween": 1188,
      "Ġdata": 1189,
      "quire": 1190,
      "Ġgood": 1191,
      "Ġ10": 1192,
      "velop": 1193,
      "Ġfollow": 1194,
      "ĠAnd": 1195,
      "Ġpol": 1196,
      "ek": 1197,
      "ared": 1198,
      "cri": 1199,
      "ense": 1200,
      "ting": 1201,
      "\");": 1202,
      "ince": 1203,
      "Ġ$(": 1204,
      "Ġeven": 1205,
      "rol": 1206,
      "Ġstart": 1207,
      "ric": 1208,
      "ness": 1209,
      "not": 1210,
      "orn": 1211,
      "ection": 1212,
      "erson": 1213,
      "Ġdiffer": 1214,
      "Ġway": 1215,
      "Ġser": 1216,
      "Ob": 1217,
      "ized": 1218,
      "Ġap": 1219,
      "ten": 1220,
      "Ġright": 1221,
      "return": 1222,
      "ym": 1223,
      "press": 1224,
      "Ġgr": 1225,
      "Ġ20": 1226,
      "ished": 1227,
      "Ġmuch": 1228,
      "ason": 1229,
      "ments": 1230,
      "raph": 1231,
      "11": 1232,
      "Ġcount": 1233,
      "aking": 1234,
      "Ġfl": 1235,
      "htt": 1236,
      "::": 1237,
      "Ġgener": 1238,
      "Ġwhile": 1239,
      "ody": 1240,
      "line": 1241,
      "abel": 1242,
      "Test": 1243,
      "Ġsur": 1244,
      "ead": 1245,
      "Ġear": 1246,
      "Ġbl": 1247,
      "cept": 1248,
      "Ġ!": 1249,
      "Ġhel": 1250,
      "oot": 1251,
      "ale": 1252,
      "Ġ%": 1253,
      "ument": 1254,
      "lock": 1255,
      "by": 1256,
      "ement": 1257,
      "Ġhigh": 1258,
      "Ġstatic": 1259,
      "ID": 1260,
      "cont": 1261,
      "Ġstr": 1262,
      "Model": 1263,
      "Ġmin": 1264,
      "anc": 1265,
      "ution": 1266,
      "Ġext": 1267,
      "Ġusing": 1268,
      "Ġchar": 1269,
      "Ġfalse": 1270,
      "####": 1271,
      "au": 1272,
      "add": 1273,
      "ĠAl": 1274,
      "Ġfil": 1275,
      "Ġ#": 1276,
      "ittle": 1277,
      "Ġbel": 1278,
      "On": 1279,
      "Ġsame": 1280,
      "Ġelse": 1281,
      "Ġday": 1282,
      "Item": 1283,
      "Ġwant": 1284,
      "Ġsign": 1285,
      "cond": 1286,
      "Ġx": 1287,
      "ĠWh": 1288,
      "Ġdet": 1289,
      "Ġthose": 1290,
      "view": 1291,
      "ĠĠĠĠĠĠ": 1292,
      "chool": 1293,
      "Sh": 1294,
      "ters": 1295,
      "Ġ9": 1296,
      "ann": 1297,
      "ream": 1298,
      "imes": 1299,
      "Ġsystem": 1300,
      "iet": 1301,
      "Ġed": 1302,
      "ccess": 1303,
      "Ġart": 1304,
      "Ġlist": 1305,
      "__": 1306,
      "Ġmon": 1307,
      "til": 1308,
      "rite": 1309,
      "Ġlocal": 1310,
      "ponse": 1311,
      "ST": 1312,
      "Ġcar": 1313,
      "Ġ`": 1314,
      "IT": 1315,
      "ĠBut": 1316,
      "be": 1317,
      "ĠNew": 1318,
      "Ġlife": 1319,
      "](": 1320,
      "ĠAn": 1321,
      "ah": 1322,
      "AM": 1323,
      "hip": 1324,
      "alk": 1325,
      "Ġlast": 1326,
      "arget": 1327,
      "Ġtype": 1328,
      "Ġtest": 1329,
      "Ġthree": 1330,
      "Ġdec": 1331,
      "ger": 1332,
      "Ġfunction": 1333,
      "ets": 1334,
      "for": 1335,
      "ĠSe": 1336,
      "16": 1337,
      "',": 1338,
      "ision": 1339,
      "reg": 1340,
      "AL": 1341,
      "Ġfind": 1342,
      "yp": 1343,
      "$(": 1344,
      "Ġfam": 1345,
      "Ġrun": 1346,
      "att": 1347,
      "Ġbecause": 1348,
      "Ġpass": 1349,
      "min": 1350,
      "ĠEx": 1351,
      "Ġeach": 1352,
      "ĠSh": 1353,
      "ager": 1354,
      "Ġbr": 1355,
      "32": 1356,
      "Ġbuild": 1357,
      "val": 1358,
      "Ġche": 1359,
      "Ġboth": 1360,
      "ivers": 1361,
      "Ġgu": 1362,
      "ization": 1363,
      "Ġthink": 1364,
      "Ġmust": 1365,
      "An": 1366,
      "lob": 1367,
      "ĠAs": 1368,
      "ts": 1369,
      "Form": 1370,
      "orth": 1371,
      "ml": 1372,
      "Ġdevelop": 1373,
      "uff": 1374,
      "over": 1375,
      "========": 1376,
      "Ġshow": 1377,
      "AN": 1378,
      "Ġchild": 1379,
      "par": 1380,
      "br": 1381,
      "ants": 1382,
      "Ġobject": 1383,
      "...": 1384,
      "ref": 1385,
      "ait": 1386,
      "new": 1387,
      "ush": 1388,
      "ole": 1389,
      "ma": 1390,
      "ience": 1391,
      "Ġold": 1392,
      "Is": 1393,
      "ä¸": 1394,
      "iness": 1395,
      "ĠYou": 1396,
      "Ġpoint": 1397,
      "eter": 1398,
      "Ġrep": 1399,
      "str": 1400,
      "50": 1401,
      "Ġnumber": 1402,
      "%%": 1403,
      "Ġcent": 1404,
      "Ġpat": 1405,
      "\";": 1406,
      "ĠĠĠĠĠĠĠĠĠĠĠĠĠĠĠĠĠĠĠĠĠĠĠĠĠĠĠĠĠĠĠĠ": 1407,
      "Ġhelp": 1408,
      "Object": 1409,
      "Ġcase": 1410,
      "Ġhere": 1411,
      "ute": 1412,
      "rem": 1413,
      "Ġself": 1414,
      "ually": 1415,
      "ync": 1416,
      "fl": 1417,
      "ives": 1418,
      "day": 1419,
      "ought": 1420,
      "Ġexper": 1421,
      "18": 1422,
      "ĠâĢĵ": 1423,
      "Ġlittle": 1424,
      "gram": 1425,
      "lay": 1426,
      "Ġsom": 1427,
      "ĠShe": 1428,
      "Ġduring": 1429,
      "uc": 1430,
      "En": 1431,
      "ains": 1432,
      "Qu": 1433,
      "ength": 1434,
      "Ġmod": 1435,
      "roid": 1436,
      "ĠOn": 1437,
      "ler": 1438,
      "pace": 1439,
      "ET": 1440,
      "meric": 1441,
      "Ġbre": 1442,
      "formation": 1443,
      "ists": 1444,
      "ĠCol": 1445,
      "Ġhead": 1446,
      "work": 1447,
      "type": 1448,
      "\"]": 1449,
      "Ġcor": 1450,
      "Ġworld": 1451,
      "comm": 1452,
      "mp": 1453,
      "alth": 1454,
      "arm": 1455,
      "date": 1456,
      "Ã©": 1457,
      "ãĥ": 1458,
      "Ġtake": 1459,
      "gg": 1460,
      "ister": 1461,
      "IL": 1462,
      "oh": 1463,
      "ern": 1464,
      "ride": 1465,
      "hes": 1466,
      "ample": 1467,
      "Ġdep": 1468,
      "Ġserv": 1469,
      "ived": 1470,
      "Ġmed": 1471,
      "Ġsecond": 1472,
      "Ġcour": 1473,
      "wh": 1474,
      "},": 1475,
      "Ġplace": 1476,
      "yle": 1477,
      "ross": 1478,
      "Ġdoes": 1479,
      "Tr": 1480,
      "Ġdon": 1481,
      "Ġopen": 1482,
      "15": 1483,
      "Cl": 1484,
      "ven": 1485,
      "Un": 1486,
      "ral": 1487,
      "less": 1488,
      "ified": 1489,
      "Ġwrit": 1490,
      "Ġdifferent": 1491,
      "Ġfin": 1492,
      "Ġstill": 1493,
      "âĢľ": 1494,
      "Ġca": 1495,
      "ĠAss": 1496,
      "ĠIf": 1497,
      "âĢĵ": 1498,
      "RE": 1499,
      "14": 1500,
      "ism": 1501,
      "atus": 1502,
      "ved": 1503,
      "ify": 1504,
      "Ind": 1505,
      "ãĤ": 1506,
      "rc": 1507,
      "ustom": 1508,
      "arent": 1509,
      "Ġ)": 1510,
      "Time": 1511,
      "ule": 1512,
      "aving": 1513,
      "here": 1514,
      "Ġcare": 1515,
      "ptions": 1516,
      "Exception": 1517,
      "But": 1518,
      "ĠIs": 1519,
      "ained": 1520,
      "ĠFor": 1521,
      "aj": 1522,
      "ĠThey": 1523,
      "play": 1524,
      "public": 1525,
      "indows": 1526,
      "ik": 1527,
      "ĠĠĠĠĠĠĠĠĠ": 1528,
      "Ġest": 1529,
      "Ġsay": 1530,
      "25": 1531,
      "ele": 1532,
      "Ġlead": 1533,
      "test": 1534,
      "roll": 1535,
      "ically": 1536,
      "64": 1537,
      "Ġmain": 1538,
      "unction": 1539,
      "ural": 1540,
      "outh": 1541,
      "Key": 1542,
      "ĠĠĠĠĠĠĠĠĠĠĠĠĠĠĠĠĠĠĠĠĠĠĠĠĠĠĠ": 1543,
      "_{": 1544,
      "ĠÐ": 1545,
      "13": 1546,
      "icro": 1547,
      "Or": 1548,
      "Ġimport": 1549,
      "Ġwithout": 1550,
      "Ġ!=": 1551,
      "ï¼": 1552,
      "gs": 1553,
      "oad": 1554,
      "Ġmen": 1555,
      "uss": 1556,
      "ĠInd": 1557,
      "By": 1558,
      "cent": 1559,
      "Ġoper": 1560,
      "Ġfr": 1561,
      "ried": 1562,
      "riend": 1563,
      "He": 1564,
      "Man": 1565,
      "atter": 1566,
      "ession": 1567,
      "));": 1568,
      "Ġappe": 1569,
      "Ġfact": 1570,
      "action": 1571,
      "********": 1572,
      "bers": 1573,
      "load": 1574,
      "ĠAmeric": 1575,
      "ality": 1576,
      "local": 1577,
      "Ġsupport": 1578,
      "Wh": 1579,
      "Se": 1580,
      "///": 1581,
      "Ġbus": 1582,
      "Ġmem": 1583,
      "ling": 1584,
      "iles": 1585,
      "\".": 1586,
      "col": 1587,
      "Ġfile": 1588,
      "System": 1589,
      "yn": 1590,
      "Ġeffect": 1591,
      "ech": 1592,
      "med": 1593,
      "ĠString": 1594,
      "Ġperson": 1595,
      "que": 1596,
      "iven": 1597,
      "Ġagainst": 1598,
      "Size": 1599,
      "Ġtoo": 1600,
      "Ġdel": 1601,
      "Ġer": 1602,
      "Ġ199": 1603,
      "Ġoverride": 1604,
      "Ġupon": 1605,
      "Ġcontin": 1606,
      "File": 1607,
      "Ġmov": 1608,
      "ivity": 1609,
      "Ġposs": 1610,
      "ĠGet": 1611,
      "Ġbest": 1612,
      "ĠX": 1613,
      "umn": 1614,
      "Ġprocess": 1615,
      "Ġstate": 1616,
      "Code": 1617,
      "opy": 1618,
      "ateg": 1619,
      "lear": 1620,
      "ission": 1621,
      "ways": 1622,
      "Ġpresent": 1623,
      "Ġteam": 1624,
      "https": 1625,
      "Ġav": 1626,
      "Ġappro": 1627,
      "Ġmark": 1628,
      "ration": 1629,
      "Ġvis": 1630,
      "ords": 1631,
      "App": 1632,
      "ency": 1633,
      "Ġins": 1634,
      "Ġnever": 1635,
      "Ġmodel": 1636,
      "Info": 1637,
      "ote": 1638,
      "itor": 1639,
      "Ġcurrent": 1640,
      "ĠThere": 1641,
      "lin": 1642,
      "file": 1643,
      "Ġref": 1644,
      "Ġdirect": 1645,
      "Ġsmall": 1646,
      "var": 1647,
      "Ġdesign": 1648,
      "ribute": 1649,
      "30": 1650,
      "AS": 1651,
      "Att": 1652,
      "17": 1653,
      "ĠZ": 1654,
      "Event": 1655,
      "Ġincre": 1656,
      "acter": 1657,
      "Ġhome": 1658,
      "Ġorder": 1659,
      "âĢĶ": 1660,
      "Ġbo": 1661,
      "reate": 1662,
      "Im": 1663,
      "Ġsk": 1664,
      "Int": 1665,
      "Ġbook": 1666,
      "Ġ12": 1667,
      "Ġperform": 1668,
      "):": 1669,
      "Ġpartic": 1670,
      "lobal": 1671,
      "Ġmethod": 1672,
      "Ġbro": 1673,
      "ane": 1674,
      "time": 1675,
      "ases": 1676,
      "Ġrequire": 1677,
      "._": 1678,
      "[\"": 1679,
      "akes": 1680,
      "We": 1681,
      "ves": 1682,
      "Ġwom": 1683,
      "Ġ>": 1684,
      "ron": 1685,
      "State": 1686,
      "back": 1687,
      "Ġmet": 1688,
      "ides": 1689,
      "ĠFr": 1690,
      "urch": 1691,
      "lish": 1692,
      "oss": 1693,
      "Ġrece": 1694,
      "Ġpop": 1695,
      "0000": 1696,
      "Ġlet": 1697,
      "This": 1698,
      "aster": 1699,
      "arge": 1700,
      "vert": 1701,
      "Ġmight": 1702,
      "ĠDe": 1703,
      "ised": 1704,
      "AG": 1705,
      "Ġfew": 1706,
      "Ġleft": 1707,
      "uthor": 1708,
      "Ġsol": 1709,
      "ird": 1710,
      "ology": 1711,
      "els": 1712,
      "Ġsing": 1713,
      "IC": 1714,
      "For": 1715,
      "ene": 1716,
      "Ð¾": 1717,
      "ott": 1718,
      "ware": 1719,
      "ĠMr": 1720,
      "face": 1721,
      "Ġsl": 1722,
      "ially": 1723,
      "right": 1724,
      "ĠEng": 1725,
      "ided": 1726,
      "ĠCl": 1727,
      "text": 1728,
      "arn": 1729,
      "Ġcome": 1730,
      "Ġfour": 1731,
      "oken": 1732,
      "ital": 1733,
      "Ġline": 1734,
      "ior": 1735,
      "lected": 1736,
      "Ġwon": 1737,
      "amespace": 1738,
      "Ġpost": 1739,
      "Ġ16": 1740,
      "loy": 1741,
      "itle": 1742,
      "mb": 1743,
      "Ġprot": 1744,
      "ury": 1745,
      "ences": 1746,
      "ats": 1747,
      "lication": 1748,
      "Context": 1749,
      "Ġanother": 1750,
      "itions": 1751,
      "Ġfore": 1752,
      "Equ": 1753,
      "Ġret": 1754,
      "Service": 1755,
      "Ġintern": 1756,
      "ret": 1757,
      "Ġ15": 1758,
      "data": 1759,
      "Ġspe": 1760,
      "22": 1761,
      "DI": 1762,
      "iver": 1763,
      "urs": 1764,
      "RO": 1765,
      "ertain": 1766,
      "Of": 1767,
      "Gener": 1768,
      "Ġrele": 1769,
      "Ġcommun": 1770,
      "bo": 1771,
      "Ġbu": 1772,
      "].": 1773,
      "uration": 1774,
      "me": 1775,
      "Ġz": 1776,
      "Ġturn": 1777,
      "Ġcalled": 1778,
      "log": 1779,
      "ected": 1780,
      "my": 1781,
      "Ġocc": 1782,
      "Result": 1783,
      "[]": 1784,
      "Ser": 1785,
      "Ġaround": 1786,
      "oci": 1787,
      "DE": 1788,
      "Ġseem": 1789,
      "Count": 1790,
      "Ġadv": 1791,
      "Ġsever": 1792,
      "ulation": 1793,
      "bs": 1794,
      "Ðµ": 1795,
      "Ġschool": 1796,
      "Ġconf": 1797,
      "Ġput": 1798,
      "ender": 1799,
      "ĠRes": 1800,
      "Property": 1801,
      "ION": 1802,
      "ately": 1803,
      "Ġpres": 1804,
      "ĠHow": 1805,
      "AC": 1806,
      "Ġ17": 1807,
      "Ġproject": 1808,
      "Ġview": 1809,
      "inc": 1810,
      "Ġâ": 1811,
      "Ġcame": 1812,
      ".âĢĿ": 1813,
      "soft": 1814,
      "rist": 1815,
      "Ġmus": 1816,
      "Ent": 1817,
      "ither": 1818,
      "ium": 1819,
      "iversity": 1820,
      "().": 1821,
      "emp": 1822,
      "Ġpower": 1823,
      "version": 1824,
      "Ġweek": 1825,
      "istory": 1826,
      "Ġuntil": 1827,
      "ĠInt": 1828,
      "Ġ&&": 1829,
      "Ġstand": 1830,
      "And": 1831,
      "Ġtry": 1832,
      "Index": 1833,
      "ache": 1834,
      "Ġnext": 1835,
      "Ġconsider": 1836,
      "sw": 1837,
      "ĠLe": 1838,
      "Ġla": 1839,
      "\":": 1840,
      "Ġsince": 1841,
      "value": 1842,
      "ĠTr": 1843,
      "Ġwater": 1844,
      "LE": 1845,
      "Ġgl": 1846,
      "iving": 1847,
      "Ġrest": 1848,
      "ĠSc": 1849,
      "lex": 1850,
      "Ġinformation": 1851,
      "anged": 1852,
      "Ġnear": 1853,
      "ended": 1854,
      "80": 1855,
      "Ġgover": 1856,
      "Ð°": 1857,
      "HE": 1858,
      "class": 1859,
      "ining": 1860,
      "Ġsw": 1861,
      "Ġgroup": 1862,
      "agn": 1863,
      "Ġpo": 1864,
      "Ġequ": 1865,
      "Path": 1866,
      "ww": 1867,
      "iron": 1868,
      "ĠSp": 1869,
      "Ġexp": 1870,
      "Ġreal": 1871,
      "aut": 1872,
      "40": 1873,
      ".,": 1874,
      "Ġpar": 1875,
      "Ġtop": 1876,
      "--------------------------------": 1877,
      "rop": 1878,
      "```": 1879,
      "de": 1880,
      "Ġincluding": 1881,
      "ĠComm": 1882,
      "inter": 1883,
      "Ġcr": 1884,
      "Ġhum": 1885,
      "Ġfriend": 1886,
      "Ġprogram": 1887,
      "SE": 1888,
      "ently": 1889,
      "thing": 1890,
      "Ġlevel": 1891,
      "chn": 1892,
      "ination": 1893,
      "aps": 1894,
      "Comm": 1895,
      "Ġask": 1896,
      "Ġfield": 1897,
      "md": 1898,
      "With": 1899,
      "ley": 1900,
      "ered": 1901,
      "201": 1902,
      "af": 1903,
      "Ġbool": 1904,
      "Ġgoing": 1905,
      "idth": 1906,
      "Ġlater": 1907,
      "Ġknown": 1908,
      "irc": 1909,
      "ively": 1910,
      "ector": 1911,
      "ouble": 1912,
      "Config": 1913,
      "////": 1914,
      "Ġreport": 1915,
      "Ġfamily": 1916,
      "ackage": 1917,
      "Box": 1918,
      "ĠTo": 1919,
      "mov": 1920,
      "Ġ->": 1921,
      "Ġes": 1922,
      "ffic": 1923,
      "ients": 1924,
      "Ġevent": 1925,
      "ĠAll": 1926,
      "efault": 1927,
      "Message": 1928,
      "Ġhapp": 1929,
      "Al": 1930,
      "Param": 1931,
      "Build": 1932,
      "ohn": 1933,
      "Des": 1934,
      "Log": 1935,
      "tings": 1936,
      "duct": 1937,
      "stand": 1938,
      "Ġ},": 1939,
      "Collection": 1940,
      "Ġbusiness": 1941,
      ".</": 1942,
      "Not": 1943,
      "angu": 1944,
      "Ġthought": 1945,
      "ope": 1946,
      "User": 1947,
      "gr": 1948,
      "Ġinterest": 1949,
      "Ġorig": 1950,
      "reen": 1951,
      "Ġdem": 1952,
      "Hand": 1953,
      "idd": 1954,
      "Ġdisc": 1955,
      "namespace": 1956,
      "Ġorgan": 1957,
      "ĠList": 1958,
      "99": 1959,
      "umer": 1960,
      "alf": 1961,
      "?\"": 1962,
      "Ġfollowing": 1963,
      "Ġmar": 1964,
      "ches": 1965,
      "icense": 1966,
      "Ġeas": 1967,
      "iction": 1968,
      "AP": 1969,
      "nment": 1970,
      "Ġalways": 1971,
      "ina": 1972,
      "{\\": 1973,
      "Ġwithin": 1974,
      "ãĢ": 1975,
      "çļ": 1976,
      "but": 1977,
      "Ġgame": 1978,
      "oun": 1979,
      ",âĢĿ": 1980,
      "pression": 1981,
      "çļĦ": 1982,
      "Ġhouse": 1983,
      "stance": 1984,
      "ured": 1985,
      "Ġlaw": 1986,
      "24": 1987,
      "Ġterm": 1988,
      "lient": 1989,
      "etwork": 1990,
      "Ġgiven": 1991,
      "ĠRe": 1992,
      "Ġprof": 1993,
      "Manager": 1994,
      "Ġless": 1995,
      "mber": 1996,
      "Ġthings": 1997,
      "Ġlight": 1998,
      "ĠPh": 1999,
      "ething": 2000,
      "ries": 2001,
      "Color": 2002,
      "lick": 2003,
      "60": 2004,
      "Ġsoc": 2005,
      "with": 2006,
      "cription": 2007,
      "Ġaway": 2008,
      "Ġsuccess": 2009,
      "elt": 2010,
      "ched": 2011,
      "Request": 2012,
      "ances": 2013,
      "Ġlove": 2014,
      "Ġkey": 2015,
      "uro": 2016,
      "ĠMar": 2017,
      "Line": 2018,
      "Ġbeh": 2019,
      "Ġopp": 2020,
      "une": 2021,
      "Ġmonth": 2022,
      "used": 2023,
      "upp": 2024,
      "ards": 2025,
      "ĠAt": 2026,
      "Ġservice": 2027,
      "Read": 2028,
      "ification": 2029,
      "Ġbetter": 2030,
      "ired": 2031,
      "Ġgrow": 2032,
      "Ġtechn": 2033,
      "Ġland": 2034,
      "aim": 2035,
      "Ġdev": 2036,
      "IS": 2037,
      "21": 2038,
      "Ġcond": 2039,
      "Ġgot": 2040,
      "Ġwent": 2041,
      "Er": 2042,
      "uck": 2043,
      "loat": 2044,
      "icrosoft": 2045,
      "UT": 2046,
      "ours": 2047,
      "Ġlarge": 2048,
      "gy": 2049,
      "vious": 2050,
      "Draw": 2051,
      "Ġtext": 2052,
      "ĠOr": 2053,
      "Field": 2054,
      ">(": 2055,
      "Ġtook": 2056,
      "Ġreally": 2057,
      "ention": 2058,
      "wards": 2059,
      "ison": 2060,
      "ably": 2061,
      "ocument": 2062,
      "Ġsimp": 2063,
      "ording": 2064,
      "lished": 2065,
      "('": 2066,
      "Ġ*/": 2067,
      "Ġpa": 2068,
      "ttp": 2069,
      "pped": 2070,
      "Ġside": 2071,
      "Ġitem": 2072,
      "math": 2073,
      "Ġfeel": 2074,
      "Ġquest": 2075,
      "pi": 2076,
      "ential": 2077,
      "ounc": 2078,
      "pty": 2079,
      "ava": 2080,
      "Ġconn": 2081,
      "lose": 2082,
      "Ġdays": 2083,
      "ung": 2084,
      "Ġyoung": 2085,
      "Ġiss": 2086,
      "ape": 2087,
      "Ġsim": 2088,
      "Ġey": 2089,
      "Comp": 2090,
      "Ġeng": 2091,
      "Ġanal": 2092,
      "Ġide": 2093,
      "enn": 2094,
      "cript": 2095,
      "Ġalong": 2096,
      "osed": 2097,
      "irt": 2098,
      "ored": 2099,
      "aken": 2100,
      "ources": 2101,
      "gin": 2102,
      "Ġcap": 2103,
      "Ġfull": 2104,
      "Ġkeep": 2105,
      "Dis": 2106,
      "key": 2107,
      "aterial": 2108,
      "Ġdi": 2109,
      "Up": 2110,
      "ĠSo": 2111,
      "Windows": 2112,
      "Ġseveral": 2113,
      "iter": 2114,
      "pose": 2115,
      "ĠAd": 2116,
      "fil": 2117,
      "pected": 2118,
      "AME": 2119,
      "sub": 2120,
      "aces": 2121,
      "Ġtarget": 2122,
      "Ġbreak": 2123,
      "Ð¸": 2124,
      "most": 2125,
      "Ġhard": 2126,
      "Ġstudy": 2127,
      "Null": 2128,
      "Ġchildren": 2129,
      "ï¼Į": 2130,
      "Ġfar": 2131,
      "ability": 2132,
      "ots": 2133,
      "Ġgive": 2134,
      "org": 2135,
      "icle": 2136,
      "Ġseason": 2137,
      "lib": 2138,
      "ending": 2139,
      "Ġthrow": 2140,
      "Ġlog": 2141,
      "iod": 2142,
      "itive": 2143,
      "CT": 2144,
      "23": 2145,
      "Ġprom": 2146,
      "ference": 2147,
      "Ġshort": 2148,
      "Ġann": 2149,
      "ĠAssert": 2150,
      "ians": 2151,
      "ograph": 2152,
      "55": 2153,
      "crib": 2154,
      "All": 2155,
      "Âł": 2156,
      "Ġ14": 2157,
      "only": 2158,
      "Ġid": 2159,
      "label": 2160,
      "ued": 2161,
      "aged": 2162,
      "build": 2163,
      "Ġwar": 2164,
      "rip": 2165,
      "Ġproduct": 2166,
      "Loc": 2167,
      "itial": 2168,
      "iety": 2169,
      "td": 2170,
      "Ġcountry": 2171,
      "pert": 2172,
      "Ġrese": 2173,
      "Ġimportant": 2174,
      "Ġnon": 2175,
      "From": 2176,
      "Ġandroid": 2177,
      "ift": 2178,
      "ailable": 2179,
      "ĠĠĠĠĠĠĠĠĠĠĠĠĠ": 2180,
      "enc": 2181,
      "Client": 2182,
      "],": 2183,
      "oice": 2184,
      "Ġve": 2185,
      "Ġthough": 2186,
      "ilt": 2187,
      "go": 2188,
      "ails": 2189,
      "Ġaw": 2190,
      "Ġsomething": 2191,
      "Ġhaving": 2192,
      "Ġexpl": 2193,
      "Ġ$\\": 2194,
      "Ġarea": 2195,
      "ÑĤ": 2196,
      "Ġamong": 2197,
      "apt": 2198,
      "ĠJohn": 2199,
      "Ġcompany": 2200,
      "bl": 2201,
      "Ġonce": 2202,
      "70": 2203,
      "Ġbecame": 2204,
      "())": 2205,
      "ajor": 2206,
      "AD": 2207,
      "Ġproble": 2208,
      "Ġarg": 2209,
      "viron": 2210,
      "\")]": 2211,
      "oney": 2212,
      "epend": 2213,
      "Ġbased": 2214,
      "ĠQ": 2215,
      "Em": 2216,
      "Ġuser": 2217,
      "Ġaut": 2218,
      "ee": 2219,
      "ĠUniversity": 2220,
      "ĠAmerican": 2221,
      "ĠCont": 2222,
      "rap": 2223,
      "ories": 2224,
      "Ġlim": 2225,
      "Ġfree": 2226,
      "Async": 2227,
      "ĠWhen": 2228,
      "MA": 2229,
      "Val": 2230,
      "ithub": 2231,
      "Ġinc": 2232,
      "ĠPr": 2233,
      "If": 2234,
      "function": 2235,
      "heck": 2236,
      "Ġmult": 2237,
      "||": 2238,
      "serv": 2239,
      "Ġallow": 2240,
      "Ġ13": 2241,
      "Ġnight": 2242,
      "Ġoften": 2243,
      "Ġcontrol": 2244,
      "Ġhealth": 2245,
      "Ġearly": 2246,
      "ED": 2247,
      "OT": 2248,
      "ctions": 2249,
      "ponent": 2250,
      "ĠĠĊ": 2251,
      "bt": 2252,
      "../": 2253,
      "Ġ?": 2254,
      "div": 2255,
      "rew": 2256,
      "Ġcharacter": 2257,
      "Ġmove": 2258,
      "ober": 2259,
      "rid": 2260,
      "ieve": 2261,
      "Ġkind": 2262,
      "Attribute": 2263,
      "Ġcell": 2264,
      "Act": 2265,
      "Ġparam": 2266,
      "Ġever": 2267,
      "Ġhimself": 2268,
      "anguage": 2269,
      "Create": 2270,
      "ĠChrist": 2271,
      "eters": 2272,
      "ĠUnited": 2273,
      "ai": 2274,
      "ĠMay": 2275,
      "Ã¡": 2276,
      "cle": 2277,
      "Ġ;": 2278,
      "that": 2279,
      "Ġbase": 2280,
      "You": 2281,
      "Ġtell": 2282,
      "_,": 2283,
      "Rep": 2284,
      "ivid": 2285,
      "Ġoffic": 2286,
      "Ġident": 2287,
      "Ġrequest": 2288,
      "ready": 2289,
      "ĠGod": 2290,
      "enu": 2291,
      "Ġbody": 2292,
      "ari": 2293,
      "ering": 2294,
      "returns": 2295,
      "»¿": 2296,
      "lete": 2297,
      "itional": 2298,
      "Ġdone": 2299,
      "Ġsit": 2300,
      "side": 2301,
      "ĠHis": 2302,
      "ump": 2303,
      "amed": 2304,
      "ï»¿": 2305,
      "':": 2306,
      "Ġinf": 2307,
      "ĠCan": 2308,
      "Write": 2309,
      "Token": 2310,
      "cer": 2311,
      "Ref": 2312,
      "Ġcity": 2313,
      "Ġet": 2314,
      "Ġresults": 2315,
      "ension": 2316,
      "Hel": 2317,
      "NAME": 2318,
      "Ġ,": 2319,
      "ĠPl": 2320,
      "see": 2321,
      "ands": 2322,
      "object": 2323,
      "Ġemp": 2324,
      "Ġpath": 2325,
      "ales": 2326,
      "ĠNo": 2327,
      "Ġfre": 2328,
      "33": 2329,
      "89": 2330,
      "Ġì": 2331,
      "Button": 2332,
      "ĠBe": 2333,
      "Ġcourse": 2334,
      "Ġchange": 2335,
      "ĠMan": 2336,
      "Error": 2337,
      "ules": 2338,
      "Response": 2339,
      "Ġpract": 2340,
      "Ad": 2341,
      "Ġtimes": 2342,
      "rag": 2343,
      "aint": 2344,
      "oke": 2345,
      "ks": 2346,
      "rain": 2347,
      "empl": 2348,
      "ayout": 2349,
      "Ġleg": 2350,
      "Ġport": 2351,
      "github": 2352,
      "Method": 2353,
      "ament": 2354,
      "Element": 2355,
      "Ġyet": 2356,
      "ĠBl": 2357,
      "Ġtable": 2358,
      "Ġinvest": 2359,
      "yl": 2360,
      "mod": 2361,
      "Ġrecord": 2362,
      "clude": 2363,
      "fe": 2364,
      "75": 2365,
      "ypes": 2366,
      "CH": 2367,
      "urther": 2368,
      "ags": 2369,
      "sel": 2370,
      "gress": 2371,
      "osition": 2372,
      "++": 2373,
      "indow": 2374,
      "head": 2375,
      "Ġsingle": 2376,
      "now": 2377,
      "ged": 2378,
      "Ġair": 2379,
      "Point": 2380,
      "Ġcheck": 2381,
      "CO": 2382,
      "Ġsure": 2383,
      "pper": 2384,
      "Ġ**": 2385,
      "Ġ30": 2386,
      "Ġtw": 2387,
      "ball": 2388,
      "no": 2389,
      "item": 2390,
      "Ġcertain": 2391,
      "UR": 2392,
      "Ġmean": 2393,
      "Trans": 2394,
      "util": 2395,
      "}}": 2396,
      "vironment": 2397,
      "86": 2398,
      ")]": 2399,
      "########": 2400,
      "ĠBo": 2401,
      "Ġshall": 2402,
      "Ġplan": 2403,
      "ground": 2404,
      "Ġroom": 2405,
      "Ġable": 2406,
      "off": 2407,
      "dir": 2408,
      "agement": 2409,
      "45": 2410,
      "Ġoffer": 2411,
      "aced": 2412,
      "though": 2413,
      "aining": 2414,
      "ls": 2415,
      "ilar": 2416,
      "list": 2417,
      "itch": 2418,
      "ened": 2419,
      "Ð½": 2420,
      "!\"": 2421,
      "29": 2422,
      "Ġmusic": 2423,
      "Ġple": 2424,
      "Ġsum": 2425,
      "Ġcustom": 2426,
      "Ġsent": 2427,
      "åı": 2428,
      "Ġposition": 2429,
      "Array": 2430,
      "ief": 2431,
      "illion": 2432,
      "26": 2433,
      "place": 2434,
      "Ġpay": 2435,
      "Ġstruct": 2436,
      "200": 2437,
      "older": 2438,
      "Length": 2439,
      "Ġpub": 2440,
      "---": 2441,
      "Ġvol": 2442,
      "Ġsize": 2443,
      "src": 2444,
      "%%%%": 2445,
      "Pl": 2446,
      "/>": 2447,
      "aring": 2448,
      "Ġtreat": 2449,
      "ĠâĢĺ": 2450,
      "Ġ+=": 2451,
      "Ġaccount": 2452,
      "ached": 2453,
      "gether": 2454,
      "Ġfilm": 2455,
      "Ġtogether": 2456,
      "anges": 2457,
      "DIR": 2458,
      "ising": 2459,
      "ternal": 2460,
      "call": 2461,
      "Ġheart": 2462,
      "Ġwomen": 2463,
      "Ġthing": 2464,
      "ney": 2465,
      "urity": 2466,
      "ĠApp": 2467,
      "Node": 2468,
      "->": 2469,
      "Ġmat": 2470,
      "Ġsource": 2471,
      "Ġbig": 2472,
      "Ġexc": 2473,
      "ĠEd": 2474,
      "Ġimpro": 2475,
      "Ġseen": 2476,
      "ecess": 2477,
      "Ġrepresent": 2478,
      "word": 2479,
      "FL": 2480,
      "27": 2481,
      "Class": 2482,
      "28": 2483,
      "Ġsuper": 2484,
      "perties": 2485,
      "Ġlow": 2486,
      "augh": 2487,
      "Ġmor": 2488,
      "Be": 2489,
      "ables": 2490,
      "Forms": 2491,
      "Ġothers": 2492,
      "uly": 2493,
      "Ġavailable": 2494,
      "Ġhalf": 2495,
      "ibr": 2496,
      "def": 2497,
      "dis": 2498,
      "Ġcreate": 2499,
      "Ġmind": 2500,
      "order": 2501,
      "Ġant": 2502,
      "iment": 2503,
      "Ġexist": 2504,
      "idence": 2505,
      "ĠThat": 2506,
      "oud": 2507,
      ")/": 2508,
      "Ġmeet": 2509,
      "35": 2510,
      "Ġtot": 2511,
      "ĠPar": 2512,
      "Fact": 2513,
      "ĠEn": 2514,
      "Ġtre": 2515,
      "ING": 2516,
      "atures": 2517,
      "olution": 2518,
      "Ġabove": 2519,
      "Ġbecome": 2520,
      "Ġcost": 2521,
      "Sp": 2522,
      "Ġpossible": 2523,
      "Ġmaking": 2524,
      "ĠCar": 2525,
      "Ġgovernment": 2526,
      "Ġdeath": 2527,
      "Ġstre": 2528,
      "Ġ11": 2529,
      "Builder": 2530,
      "Ġhowever": 2531,
      "osp": 2532,
      "ique": 2533,
      "Ġbas": 2534,
      "ips": 2535,
      "raft": 2536,
      "ql": 2537,
      "Ġhig": 2538,
      "Ġmeas": 2539,
      "ones": 2540,
      "Ġage": 2541,
      "Drawing": 2542,
      "Ġhuman": 2543,
      "Ġmajor": 2544,
      "Ġwin": 2545,
      "ersion": 2546,
      "pre": 2547,
      "Ġeither": 2548,
      "Ġcur": 2549,
      "Ġperiod": 2550,
      "resh": 2551,
      "Ġexample": 2552,
      "Ġbegan": 2553,
      "Ġenough": 2554,
      "Ġmom": 2555,
      "Ġalready": 2556,
      "Ġcover": 2557,
      "egin": 2558,
      "path": 2559,
      "empt": 2560,
      "alt": 2561,
      "Control": 2562,
      "Ġcal": 2563,
      "ude": 2564,
      "rack": 2565,
      "map": 2566,
      "Ġseries": 2567,
      "================": 2568,
      "Ġaccess": 2569,
      "44": 2570,
      "Out": 2571,
      "atab": 2572,
      "Ġelement": 2573,
      "ibility": 2574,
      "ÑĢ": 2575,
      "ĠStates": 2576,
      "ĠHowever": 2577,
      "Ġstrong": 2578,
      "Date": 2579,
      "uf": 2580,
      "Ass": 2581,
      "ä»": 2582,
      "uffer": 2583,
      "cher": 2584,
      "ĠĠĠĠĠĠĠĠĠĠĠĠĠĠĠĠĠĠĠĠĠĠĠĠĠĠĠĠĠĠĠ": 2585,
      "Ġpolit": 2586,
      "ENT": 2587,
      "Ġface": 2588,
      "II": 2589,
      "Ġmembers": 2590,
      "ailed": 2591,
      "imal": 2592,
      "ony": 2593,
      "Ġdefault": 2594,
      "iff": 2595,
      "Ġsix": 2596,
      "ename": 2597,
      "ogn": 2598,
      "ĠEuro": 2599,
      "Ġclear": 2600,
      "Ed": 2601,
      "Sc": 2602,
      "Ġdue": 2603,
      "Inter": 2604,
      "ysis": 2605,
      "Ġdescrib": 2606,
      "ĠSet": 2607,
      "acy": 2608,
      "Equal": 2609,
      "mm": 2610,
      "Ġelect": 2611,
      "ux": 2612,
      "Ġauthor": 2613,
      "inding": 2614,
      "ortun": 2615,
      "ĠThese": 2616,
      "Ġwhole": 2617,
      "ĠLicense": 2618,
      "ividual": 2619,
      "Ġpast": 2620,
      "Ġcode": 2621,
      "Ġfive": 2622,
      "Ġrespon": 2623,
      "ĠĠĠĠĠĠĠĠĠĠĠĠ": 2624,
      "Ġdevelopment": 2625,
      "IM": 2626,
      "ĠGu": 2627,
      "36": 2628,
      "Ġmeans": 2629,
      "Ġredu": 2630,
      "Ġsoft": 2631,
      "Ġleast": 2632,
      "rict": 2633,
      "39": 2634,
      "Reg": 2635,
      "leg": 2636,
      "No": 2637,
      "Ġgeneral": 2638,
      "amb": 2639,
      "Ġheld": 2640,
      "ulture": 2641,
      "At": 2642,
      "88": 2643,
      "ĠAdd": 2644,
      "ourn": 2645,
      "ctor": 2646,
      "801": 2647,
      "Ġcomplet": 2648,
      "Ġsignific": 2649,
      "from": 2650,
      "Ġinclude": 2651,
      "Ġtown": 2652,
      "illed": 2653,
      "Ġversion": 2654,
      "Ġparticular": 2655,
      "ĠCent": 2656,
      "Ð¾Ð": 2657,
      "Ġunderstand": 2658,
      "(),": 2659,
      "bum": 2660,
      "region": 2661,
      "comp": 2662,
      "rown": 2663,
      "Ġassoci": 2664,
      "ĠBrit": 2665,
      "hing": 2666,
      "Ġlik": 2667,
      "ruction": 2668,
      "ague": 2669,
      "tes": 2670,
      "Mod": 2671,
      "ebug": 2672,
      "icy": 2673,
      "Ġ25": 2674,
      "Ñģ": 2675,
      "Ġenc": 2676,
      "Ġreceived": 2677,
      "ilit": 2678,
      "rel": 2679,
      "UL": 2680,
      "Task": 2681,
      "Ġhold": 2682,
      "Ġsat": 2683,
      "Ġtalk": 2684,
      "Ġcommand": 2685,
      "Ġspecial": 2686,
      "ĠGerm": 2687,
      "ĠUS": 2688,
      "semb": 2689,
      "ideo": 2690,
      "ĠWith": 2691,
      "sole": 2692,
      "Ġcamp": 2693,
      "ĠMy": 2694,
      "ceed": 2695,
      "iam": 2696,
      "ĠBy": 2697,
      "ĠAfter": 2698,
      "Ġ100": 2699,
      "Ġcontext": 2700,
      "34": 2701,
      "Ġsong": 2702,
      "aff": 2703,
      "((": 2704,
      "Play": 2705,
      "Ġ32": 2706,
      "Ġsubject": 2707,
      "rad": 2708,
      "light": 2709,
      "bar": 2710,
      "Ġeduc": 2711,
      "There": 2712,
      "Ġdiff": 2713,
      "Ġfather": 2714,
      "ops": 2715,
      "Ġmarket": 2716,
      "Ġpot": 2717,
      "loc": 2718,
      "Ġinfl": 2719,
      "ills": 2720,
      "ainer": 2721,
      "Ġworking": 2722,
      "Ġbegin": 2723,
      "ĠWorld": 2724,
      "Ġtaken": 2725,
      "IG": 2726,
      "ĠCount": 2727,
      "Start": 2728,
      "itory": 2729,
      "ormal": 2730,
      "ĠRep": 2731,
      "Component": 2732,
      "Ġsaw": 2733,
      "Ġsec": 2734,
      "Ġhistory": 2735,
      "eed": 2736,
      "Ġmer": 2737,
      "utes": 2738,
      "ounds": 2739,
      "FF": 2740,
      "otion": 2741,
      "Ġdiv": 2742,
      "Ġbit": 2743,
      "Ġ36": 2744,
      "Ġpur": 2745,
      "Ġcomb": 2746,
      "Ġjo": 2747,
      "dom": 2748,
      "apter": 2749,
      "Ġ24": 2750,
      "AB": 2751,
      "Ġexperience": 2752,
      "Ġconfig": 2753,
      "Ġstory": 2754,
      "ampl": 2755,
      "Ġresponse": 2756,
      "user": 2757,
      "OP": 2758,
      "ĠGe": 2759,
      "Ġfoot": 2760,
      "Collections": 2761,
      "ĠJan": 2762,
      "inary": 2763,
      "des": 2764,
      "ĠEurope": 2765,
      "76": 2766,
      "Source": 2767,
      "85": 2768,
      "ĠĠĠĠĠĠĠĠĠĠ": 2769,
      "New": 2770,
      "Core": 2771,
      "Ġtrad": 2772,
      "Instance": 2773,
      "uture": 2774,
      "ĠAust": 2775,
      "ĉĉĉĉĉ": 2776,
      "ume": 2777,
      "ãĢĤ": 2778,
      "Ġlo": 2779,
      "Ġcontent": 2780,
      "Ġaddress": 2781,
      "Ġprovide": 2782,
      "ĠYork": 2783,
      "rm": 2784,
      "Serial": 2785,
      "itted": 2786,
      "Ġstat": 2787,
      "90": 2788,
      "cs": 2789,
      "ĠAN": 2790,
      "Ġlot": 2791,
      "met": 2792,
      "Map": 2793,
      "annel": 2794,
      "Status": 2795,
      "Ġben": 2796,
      "Ġmoney": 2797,
      "US": 2798,
      "field": 2799,
      "ĠState": 2800,
      "Ġresearch": 2801,
      "ĠReg": 2802,
      "CL": 2803,
      "Ġaction": 2804,
      "!!": 2805,
      "Ġpatients": 2806,
      "Ġcrit": 2807,
      "Ġorg": 2808,
      "lood": 2809,
      "Entity": 2810,
      "Run": 2811,
      "Ġinternal": 2812,
      "}\\": 2813,
      "fully": 2814,
      "Ġservices": 2815,
      "Ġestab": 2816,
      "Ġdest": 2817,
      "roller": 2818,
      "http": 2819,
      "conom": 2820,
      "selves": 2821,
      "Ġstep": 2822,
      "Ġlarg": 2823,
      "Ġproperty": 2824,
      "Action": 2825,
      "package": 2826,
      "Ġdr": 2827,
      "airs": 2828,
      "ĠMin": 2829,
      "Ġalmost": 2830,
      "Ġcompet": 2831,
      "Ġemploy": 2832,
      "><": 2833,
      "Ġcreat": 2834,
      "river": 2835,
      "Ġ34": 2836,
      "odes": 2837,
      "Ġsays": 2838,
      "Ġsugg": 2839,
      "ĠSouth": 2840,
      "Ġsuggest": 2841,
      "Ġindividual": 2842,
      "];": 2843,
      "Ġfac": 2844,
      "Ġmessage": 2845,
      "Ġnothing": 2846,
      "Ġacross": 2847,
      "uments": 2848,
      "ĠQu": 2849,
      "Ġinvol": 2850,
      "point": 2851,
      "ĠAm": 2852,
      "umb": 2853,
      "Command": 2854,
      "Ġprevious": 2855,
      "Ġdeterm": 2856,
      "abled": 2857,
      "Ġvari": 2858,
      "den": 2859,
      "Ġansw": 2860,
      "ĠCo": 2861,
      "Ġfinal": 2862,
      "UI": 2863,
      "ui": 2864,
      "Le": 2865,
      "Ġtold": 2866,
      "Ġprob": 2867,
      "Ġcommon": 2868,
      "Ġcle": 2869,
      "ĠWar": 2870,
      "Prov": 2871,
      "Ġassert": 2872,
      "Ġsoon": 2873,
      "unk": 2874,
      "Ġbring": 2875,
      "ze": 2876,
      "ĠComp": 2877,
      "Ġreason": 2878,
      "37": 2879,
      "api": 2880,
      "Ext": 2881,
      "KE": 2882,
      "Ġsimilar": 2883,
      "ĠNational": 2884,
      "Ġrad": 2885,
      "****************": 2886,
      ">();": 2887,
      "'ll": 2888,
      "Ġobt": 2889,
      "ĠOne": 2890,
      "Call": 2891,
      "Ġwhether": 2892,
      "ĠTHE": 2893,
      "Sub": 2894,
      "abor": 2895,
      "Ġstarted": 2896,
      "Ġnat": 2897,
      "Ġ||": 2898,
      "Ġsocial": 2899,
      "Ġlate": 2900,
      "Ġstudents": 2901,
      "code": 2902,
      "Ġfall": 2903,
      "stit": 2904,
      "Ġformer": 2905,
      "db": 2906,
      "irm": 2907,
      "ĠWhat": 2908,
      "ĠSer": 2909,
      "hern": 2910,
      "Table": 2911,
      "do": 2912,
      "Ġpri": 2913,
      "ae": 2914,
      "orts": 2915,
      "ival": 2916,
      "oph": 2917,
      "Content": 2918,
      "Ġ:=": 2919,
      "ius": 2920,
      "UN": 2921,
      "Ġrequired": 2922,
      "Rec": 2923,
      "Ġsignificant": 2924,
      "Column": 2925,
      "Ġur": 2926,
      "ero": 2927,
      "isk": 2928,
      "bb": 2929,
      "rodu": 2930,
      "Ġlearn": 2931,
      "Handler": 2932,
      "ators": 2933,
      "atabase": 2934,
      "Json": 2935,
      "part": 2936,
      "Ġconc": 2937,
      "Ġeyes": 2938,
      "84": 2939,
      "ĠPol": 2940,
      "rac": 2941,
      "Ġdistribut": 2942,
      "uation": 2943,
      "rec": 2944,
      "ework": 2945,
      "Ġtotal": 2946,
      "ĠNot": 2947,
      "Ġcirc": 2948,
      "Ġvarious": 2949,
      "ids": 2950,
      "ication": 2951,
      "posed": 2952,
      "Ġter": 2953,
      "ster": 2954,
      "bol": 2955,
      "equ": 2956,
      "ĠGener": 2957,
      "^{": 2958,
      "Ġfurther": 2959,
      "ught": 2960,
      "Ġrespect": 2961,
      "lege": 2962,
      "race": 2963,
      "Ġparent": 2964,
      "Generic": 2965,
      "LO": 2966,
      "Ġrather": 2967,
      "'m": 2968,
      "Ġfood": 2969,
      "100": 2970,
      "ĠIN": 2971,
      "Ġnecess": 2972,
      "rench": 2973,
      "âĶ": 2974,
      "66": 2975,
      "Ġwhy": 2976,
      "ĠWill": 2977,
      "Group": 2978,
      "?.": 2979,
      "Ġplayed": 2980,
      "sl": 2981,
      "ili": 2982,
      "size": 2983,
      "ĠCal": 2984,
      "77": 2985,
      "Ġabs": 2986,
      "Base": 2987,
      "uary": 2988,
      "ĠDes": 2989,
      "ĠÂ": 2990,
      "na": 2991,
      "MP": 2992,
      "What": 2993,
      "Ġinstall": 2994,
      "ĠOF": 2995,
      "\"></": 2996,
      "Ġfav": 2997,
      "Ġstyle": 2998,
      "Ġword": 2999,
      "icult": 3000,
      "Ġsite": 3001,
      "Ġmaterial": 3002,
      "hel": 3003,
      "ĠAug": 3004,
      "ĠTest": 3005,
      "ĠEnglish": 3006,
      "Ġglobal": 3007,
      "model": 3008,
      "æľ": 3009,
      "Ġhost": 3010,
      "nown": 3011,
      "Ġmax": 3012,
      "Image": 3013,
      "Ġ((": 3014,
      "Ġlive": 3015,
      "Ġpress": 3016,
      "pping": 3017,
      "05": 3018,
      "era": 3019,
      "Ġsil": 3020,
      "Ġmember": 3021,
      "config": 3022,
      "rought": 3023,
      "ifier": 3024,
      "unt": 3025,
      "ĠKing": 3026,
      "ĠTask": 3027,
      "Ġflow": 3028,
      "roups": 3029,
      "Ġappear": 3030,
      "åĪ": 3031,
      "Ġblack": 3032,
      "Conn": 3033,
      "Ġsym": 3034,
      "Ġbuilding": 3035,
      "Ġfoc": 3036,
      "iple": 3037,
      "Ġgen": 3038,
      "Ġspace": 3039,
      "}$": 3040,
      "ÃŃ": 3041,
      "Ġdouble": 3042,
      "medi": 3043,
      "Ġaff": 3044,
      "ological": 3045,
      "por": 3046,
      "Check": 3047,
      "sequ": 3048,
      "Ġpaper": 3049,
      "ĠGr": 3050,
      "Ġ33": 3051,
      "count": 3052,
      "anel": 3053,
      "Default": 3054,
      "ixed": 3055,
      "down": 3056,
      "Ġprint": 3057,
      "ike": 3058,
      "Ġthird": 3059,
      "Ġquestion": 3060,
      "De": 3061,
      "earch": 3062,
      "Ġson": 3063,
      "Ġpage": 3064,
      "Ġexec": 3065,
      "Ġgir": 3066,
      "Ġrange": 3067,
      "Ġmother": 3068,
      "cover": 3069,
      "Ġphot": 3070,
      "Ġver": 3071,
      "mit": 3072,
      "Ġindust": 3073,
      "Ġawait": 3074,
      "Ġground": 3075,
      "Ġrole": 3076,
      "Ġphys": 3077,
      "83": 3078,
      "Ġnetwork": 3079,
      "End": 3080,
      "Ġjob": 3081,
      "Ġwords": 3082,
      "oved": 3083,
      "LI": 3084,
      "Ġwalk": 3085,
      "ramework": 3086,
      "Options": 3087,
      "Ġasked": 3088,
      "scri": 3089,
      "ĠOct": 3090,
      "Ġclose": 3091,
      "That": 3092,
      "trans": 3093,
      "Ġquite": 3094,
      "Ġbeaut": 3095,
      "atform": 3096,
      "Fl": 3097,
      "include": 3098,
      "attle": 3099,
      "Ġcommunity": 3100,
      "ategory": 3101,
      "istor": 3102,
      "Ġpain": 3103,
      "Ġbar": 3104,
      "')": 3105,
      "04": 3106,
      "Ġdom": 3107,
      "ĠMed": 3108,
      "Ġoriginal": 3109,
      "ellow": 3110,
      "OS": 3111,
      "Ġalbum": 3112,
      "äº": 3113,
      "clus": 3114,
      "andom": 3115,
      "Pr": 3116,
      "Ġcut": 3117,
      "Empty": 3118,
      "Ġwhite": 3119,
      "Ġste": 3120,
      "When": 3121,
      "hib": 3122,
      "ĠNorth": 3123,
      "Ġtrack": 3124,
      "ĠChar": 3125,
      "imate": 3126,
      "Ġcannot": 3127,
      "istic": 3128,
      "Ġ(!": 3129,
      "Ġvisit": 3130,
      "Ġround": 3131,
      "Ġlay": 3132,
      "Ġop": 3133,
      "Ġlink": 3134,
      "Ġerror": 3135,
      "arks": 3136,
      "Ġspecific": 3137,
      "ĠFl": 3138,
      "Ġfire": 3139,
      "was": 3140,
      "Ġregion": 3141,
      "TR": 3142,
      "Ġhon": 3143,
      "ToString": 3144,
      "anch": 3145,
      "Ġill": 3146,
      "Ġep": 3147,
      "olean": 3148,
      "otlin": 3149,
      "ĠDo": 3150,
      "Stream": 3151,
      "Ġmoment": 3152,
      "Ġinput": 3153,
      "Back": 3154,
      "fect": 3155,
      "ialog": 3156,
      "Ġrelations": 3157,
      "....": 3158,
      "'re": 3159,
      "ledge": 3160,
      "irection": 3161,
      "rect": 3162,
      "Are": 3163,
      "ĠMicrosoft": 3164,
      "oll": 3165,
      "She": 3166,
      "TER": 3167,
      "74": 3168,
      "artment": 3169,
      "65": 3170,
      "emplate": 3171,
      "Ġpers": 3172,
      "ham": 3173,
      "PH": 3174,
      "uk": 3175,
      "ging": 3176,
      "Ġreview": 3177,
      "Ġblock": 3178,
      "rest": 3179,
      "Ġmonths": 3180,
      "ĠDis": 3181,
      "Ġvirt": 3182,
      "ĠSec": 3183,
      "Ġlooking": 3184,
      "init": 3185,
      "ĠMarch": 3186,
      "eturn": 3187,
      "vis": 3188,
      "yd": 3189,
      "orage": 3190,
      "EX": 3191,
      "Ġbuilt": 3192,
      "Ġgave": 3193,
      "ada": 3194,
      "Ã³": 3195,
      "asing": 3196,
      "lied": 3197,
      "men": 3198,
      "></": 3199,
      "aging": 3200,
      "Ġcolor": 3201,
      "cast": 3202,
      "\"/>": 3203,
      "unc": 3204,
      "Ġtri": 3205,
      "gen": 3206,
      "ken": 3207,
      "Ġclaim": 3208,
      "orse": 3209,
      "ĠAct": 3210,
      "position": 3211,
      "Head": 3212,
      "Ġimage": 3213,
      "Ġworks": 3214,
      "ĠSept": 3215,
      "iddle": 3216,
      "Ġund": 3217,
      "ĠPer": 3218,
      "Ġtool": 3219,
      "Ġreadonly": 3220,
      "net": 3221,
      "true": 3222,
      "Ġprim": 3223,
      "da": 3224,
      "Ġcareer": 3225,
      "Ġfuture": 3226,
      "pril": 3227,
      "Ġquick": 3228,
      "Fr": 3229,
      "Ġobserv": 3230,
      "ĠJune": 3231,
      "sk": 3232,
      "iding": 3233,
      "Ġattack": 3234,
      "ĠSchool": 3235,
      "Ġcompan": 3236,
      "Ġplayer": 3237,
      "'ve": 3238,
      "index": 3239,
      "Net": 3240,
      "unch": 3241,
      "ĠAugust": 3242,
      "Click": 3243,
      "Ġheav": 3244,
      "Ġlanguage": 3245,
      "ends": 3246,
      "Ġdiscuss": 3247,
      "Vis": 3248,
      "Ġmakes": 3249,
      "ictionary": 3250,
      "ĠHar": 3251,
      "ĠHer": 3252,
      "Sec": 3253,
      "room": 3254,
      "aves": 3255,
      "Ġred": 3256,
      "ires": 3257,
      "filename": 3258,
      "emy": 3259,
      "79": 3260,
      "CC": 3261,
      "pecially": 3262,
      "Ġfront": 3263,
      "Ġadded": 3264,
      "Ġreleased": 3265,
      "iol": 3266,
      "ĠAf": 3267,
      "Ph": 3268,
      "Ġdeal": 3269,
      "Settings": 3270,
      "joy": 3271,
      "ĠCity": 3272,
      "udio": 3273,
      "Ġdidn": 3274,
      "Ġ\"\"": 3275,
      "Ġdecl": 3276,
      "Ġcreated": 3277,
      "IP": 3278,
      "Ġroad": 3279,
      "Ġactiv": 3280,
      "board": 3281,
      "aching": 3282,
      "ĠThen": 3283,
      "());": 3284,
      "Make": 3285,
      "Mode": 3286,
      "Input": 3287,
      "ĠÃ": 3288,
      "EL": 3289,
      "ondon": 3290,
      "Ġincluded": 3291,
      "book": 3292,
      "anced": 3293,
      ">>": 3294,
      "ĠCor": 3295,
      "Ġindex": 3296,
      "ĠBar": 3297,
      "which": 3298,
      "anks": 3299,
      "cd": 3300,
      "Ġtitle": 3301,
      "mon": 3302,
      "Ġdifficult": 3303,
      "echo": 3304,
      "vention": 3305,
      "Ġproblem": 3306,
      "ĠJuly": 3307,
      "aul": 3308,
      "run": 3309,
      "Ġindic": 3310,
      "Ġener": 3311,
      "###": 3312,
      "Format": 3313,
      "Ġperformance": 3314,
      "Ġcref": 3315,
      "ple": 3316,
      "ogle": 3317,
      "FLAG": 3318,
      "lev": 3319,
      "Tool": 3320,
      "Api": 3321,
      "byte": 3322,
      "Web": 3323,
      "Ġdeg": 3324,
      "ĠPart": 3325,
      "Changed": 3326,
      "Ġprotected": 3327,
      "Ġwoman": 3328,
      "çĶ": 3329,
      "Ġamount": 3330,
      "Ġimplement": 3331,
      "Ġopt": 3332,
      "Ġhands": 3333,
      "ites": 3334,
      "ĠAb": 3335,
      "02": 3336,
      "Ġprofession": 3337,
      "Layout": 3338,
      "Ġcopy": 3339,
      "Ġmillion": 3340,
      "Ġmatch": 3341,
      "ounter": 3342,
      "efore": 3343,
      "Ġeconom": 3344,
      "OL": 3345,
      "rive": 3346,
      "etimes": 3347,
      "begin": 3348,
      "Ġvill": 3349,
      "Ġinstance": 3350,
      "www": 3351,
      "Ġlength": 3352,
      "å®": 3353,
      "elling": 3354,
      "sembly": 3355,
      "ĠJanuary": 3356,
      "ĠâĢĶ": 3357,
      "Ġpoints": 3358,
      "Helper": 3359,
      "Ġcou": 3360,
      "Provider": 3361,
      "box": 3362,
      "Ġentire": 3363,
      "OD": 3364,
      "87": 3365,
      "body": 3366,
      "amples": 3367,
      "ilities": 3368,
      "ights": 3369,
      "ua": 3370,
      "Ġmatter": 3371,
      "ges": 3372,
      "////////": 3373,
      "imum": 3374,
      "ese": 3375,
      "ĠSw": 3376,
      "Ġ50": 3377,
      "Ġ};": 3378,
      "sec": 3379,
      "ana": 3380,
      "ving": 3381,
      "ĠSeptember": 3382,
      "ĠFrench": 3383,
      "ĠApril": 3384,
      "})": 3385,
      "Ġpopulation": 3386,
      "tx": 3387,
      "ĠIm": 3388,
      "Ġgrad": 3389,
      "Ġfund": 3390,
      "atory": 3391,
      "Ġled": 3392,
      "Ġinflu": 3393,
      "la": 3394,
      "ises": 3395,
      "Ġvalues": 3396,
      "Label": 3397,
      "Ġsens": 3398,
      "Ġwhose": 3399,
      "private": 3400,
      "itude": 3401,
      "obj": 3402,
      "Query": 3403,
      "Ġlost": 3404,
      "iful": 3405,
      "Ġdoing": 3406,
      "where": 3407,
      "print": 3408,
      "cember": 3409,
      "Ġtask": 3410,
      "ino": 3411,
      "Ġarch": 3412,
      "Ġdraw": 3413,
      "haps": 3414,
      "Ġwhom": 3415,
      "Ġitself": 3416,
      "ä½": 3417,
      "eder": 3418,
      "Thread": 3419,
      "ovember": 3420,
      "ĠOctober": 3421,
      "åĲ": 3422,
      "Style": 3423,
      "Ġnational": 3424,
      "base": 3425,
      "EM": 3426,
      "Ġneg": 3427,
      "cul": 3428,
      "start": 3429,
      "Files": 3430,
      "Args": 3431,
      "rl": 3432,
      "istance": 3433,
      "Ġregard": 3434,
      "oute": 3435,
      "Ġnamed": 3436,
      "Ġexpected": 3437,
      "Ġbrought": 3438,
      "aly": 3439,
      "ibrary": 3440,
      "Ġeff": 3441,
      "Ġchanges": 3442,
      "Ġapplication": 3443,
      "arp": 3444,
      "Ġdocument": 3445,
      "Ġsold": 3446,
      "Rem": 3447,
      "95": 3448,
      "Ġinit": 3449,
      "Ġhours": 3450,
      "Ġthemselves": 3451,
      "Ġexpress": 3452,
      "Ġenvironment": 3453,
      "Per": 3454,
      "oon": 3455,
      "Ġintrodu": 3456,
      "ĠBritish": 3457,
      "igation": 3458,
      "Menu": 3459,
      "Ġbelow": 3460,
      "Ġrespons": 3461,
      "Ġcross": 3462,
      "inst": 3463,
      "Ġanything": 3464,
      "Def": 3465,
      "\"),": 3466,
      "Ġband": 3467,
      "table": 3468,
      "ula": 3469,
      "year": 3470,
      "stars": 3471,
      "Ġagre": 3472,
      "Off": 3473,
      "Ġbelieve": 3474,
      "Ġparty": 3475,
      "Ġsound": 3476,
      "elete": 3477,
      "ĠWest": 3478,
      "rix": 3479,
      "igned": 3480,
      "38": 3481,
      "ĠOR": 3482,
      "è¿": 3483,
      "ouch": 3484,
      "oper": 3485,
      "Position": 3486,
      "upport": 3487,
      "top": 3488,
      "Ġcapt": 3489,
      "Ġrecogn": 3490,
      "Ġattempt": 3491,
      "Ġidea": 3492,
      "Ġevents": 3493,
      "After": 3494,
      "Ġlower": 3495,
      "}{": 3496,
      "gn": 3497,
      "(\\": 3498,
      "Util": 3499,
      "Version": 3500,
      "aled": 3501,
      "like": 3502,
      "ynam": 3503,
      "Ġhigher": 3504,
      "irit": 3505,
      "Ġload": 3506,
      "Load": 3507,
      "Ġfig": 3508,
      "ores": 3509,
      "Ġcomes": 3510,
      "Ġaddition": 3511,
      "Ġrepl": 3512,
      "ĠIntern": 3513,
      "Ġprovided": 3514,
      "minist": 3515,
      "Ġhot": 3516,
      "My": 3517,
      "Ġten": 3518,
      "Ġtaking": 3519,
      "Ġwritten": 3520,
      "Ġnum": 3521,
      "Ġhope": 3522,
      "Ġheard": 3523,
      "Ġë": 3524,
      "roy": 3525,
      "core": 3526,
      "âĢ¦": 3527,
      "oman": 3528,
      "opt": 3529,
      "ĠLondon": 3530,
      "ĠAustral": 3531,
      "leep": 3532,
      "sy": 3533,
      "quired": 3534,
      "Ġcases": 3535,
      "Ġbenef": 3536,
      "åħ": 3537,
      "Ġsearch": 3538,
      "context": 3539,
      "Ġcho": 3540,
      "Ġbehind": 3541,
      "Oper": 3542,
      "Ġsepar": 3543,
      "Ġoptions": 3544,
      "Ġpublished": 3545,
      "false": 3546,
      "FLAGS": 3547,
      "Ġrefer": 3548,
      "Ġreturned": 3549,
      "ĠRec": 3550,
      "Ġaffect": 3551,
      "Ġaccept": 3552,
      "left": 3553,
      "Ġwriting": 3554,
      "open": 3555,
      "Number": 3556,
      "($": 3557,
      "eax": 3558,
      "Ġbi": 3559,
      "Ġsus": 3560,
      "Eng": 3561,
      "Ġtoday": 3562,
      "ensions": 3563,
      "ta": 3564,
      "ille": 3565,
      "Ġfriends": 3566,
      "Ġfeature": 3567,
      "VER": 3568,
      "Ġder": 3569,
      "ĠMc": 3570,
      "ĠBr": 3571,
      "ĠUp": 3572,
      "Ġquality": 3573,
      "oe": 3574,
      "ĠDecember": 3575,
      "result": 3576,
      "repon": 3577,
      "69": 3578,
      "Location": 3579,
      "Aut": 3580,
      "Ġcomput": 3581,
      "reponame": 3582,
      "Update": 3583,
      "arning": 3584,
      "âĶĢ": 3585,
      "ĠData": 3586,
      "Ġfeatures": 3587,
      "Par": 3588,
      "anger": 3589,
      "su": 3590,
      "ĠNovember": 3591,
      "Ġpersonal": 3592,
      "Ġcatch": 3593,
      "verage": 3594,
      "67": 3595,
      "Ġcoll": 3596,
      "reet": 3597,
      "Ġ..": 3598,
      "ha": 3599,
      "bit": 3600,
      "mark": 3601,
      "ĠEl": 3602,
      "Ġmass": 3603,
      "Ġfloat": 3604,
      "Ġdied": 3605,
      "Ġrate": 3606,
      "ĠPres": 3607,
      "ìĿ": 3608,
      "Ġoutput": 3609,
      "aries": 3610,
      "Ġneeds": 3611,
      "Ġimm": 3612,
      "ĠĠĠĠĠĠĠĠĊ": 3613,
      "Ã¼": 3614,
      "Unit": 3615,
      "emper": 3616,
      "Arg": 3617,
      "ottom": 3618,
      "So": 3619,
      "fr": 3620,
      "Ġborn": 3621,
      "Part": 3622,
      "bor": 3623,
      "Page": 3624,
      "Ġwait": 3625,
      "ĠCreate": 3626,
      "come": 3627,
      "Ġparticip": 3628,
      "ography": 3629,
      "ĠVal": 3630,
      "03": 3631,
      "Ġinteg": 3632,
      "Ġenjoy": 3633,
      "hem": 3634,
      "js": 3635,
      "Ġwife": 3636,
      "Valid": 3637,
      "Ġknew": 3638,
      "Ġdeep": 3639,
      "Ġespecially": 3640,
      "Ġcentury": 3641,
      "urg": 3642,
      "current": 3643,
      "ensive": 3644,
      "uid": 3645,
      "Ġbad": 3646,
      "stant": 3647,
      "Ġenergy": 3648,
      "Ġlooked": 3649,
      "Ġsimple": 3650,
      "lease": 3651,
      "apan": 3652,
      "Ġliving": 3653,
      "49": 3654,
      "ship": 3655,
      "izer": 3656,
      "cell": 3657,
      "Ġengine": 3658,
      "else": 3659,
      "Ġlocated": 3660,
      "Acc": 3661,
      "'d": 3662,
      "Ġaccom": 3663,
      "Ġspeak": 3664,
      "Ġanalysis": 3665,
      "Ġmiss": 3666,
      "doc": 3667,
      "Ġclos": 3668,
      "Ġach": 3669,
      "rows": 3670,
      "ĠFeb": 3671,
      "ners": 3672,
      "Ġeasy": 3673,
      "ouncil": 3674,
      "Ġ35": 3675,
      "ĠLog": 3676,
      "cing": 3677,
      "Ġspecies": 3678,
      "aur": 3679,
      "pha": 3680,
      "Ġclient": 3681,
      "itting": 3682,
      "ming": 3683,
      "Ġconditions": 3684,
      "Ġminutes": 3685,
      ".)": 3686,
      "cpp": 3687,
      "mission": 3688,
      "Ġtreatment": 3689,
      "Ġgetting": 3690,
      "Ġaccording": 3691,
      "ĠGo": 3692,
      "Ġdate": 3693,
      "ĠVector": 3694,
      "Ġconsidered": 3695,
      "Ġdark": 3696,
      "Tag": 3697,
      "Ġclean": 3698,
      "sm": 3699,
      "Ġclub": 3700,
      "31": 3701,
      "Ġpret": 3702,
      "she": 3703,
      "One": 3704,
      "Fil": 3705,
      "Factory": 3706,
      "ĠEngland": 3707,
      "eta": 3708,
      "Ġ21": 3709,
      "Ġthus": 3710,
      "content": 3711,
      "enty": 3712,
      "hand": 3713,
      "Ġsoftware": 3714,
      "='": 3715,
      "Ġopportun": 3716,
      "Ġfrequ": 3717,
      "aughter": 3718,
      "ĠRuss": 3719,
      "ĠDep": 3720,
      "oul": 3721,
      "Ġwonder": 3722,
      "ij": 3723,
      "ady": 3724,
      "undred": 3725,
      ",$": 3726,
      "Ġdoor": 3727,
      "Ġsuff": 3728,
      "Ġ(\"": 3729,
      "Ġstay": 3730,
      "py": 3731,
      "SP": 3732,
      "check": 3733,
      "Ġnatural": 3734,
      "Ġturned": 3735,
      "cret": 3736,
      "uses": 3737,
      "Ġactually": 3738,
      "Ġsqu": 3739,
      "Ġfelt": 3740,
      "Ġprinc": 3741,
      ";;": 3742,
      "Ġtemp": 3743,
      "iting": 3744,
      "68": 3745,
      "48": 3746,
      "ALL": 3747,
      "Ġmorning": 3748,
      "Ġmot": 3749,
      "Ġvideo": 3750,
      "ald": 3751,
      "Ġproduction": 3752,
      "make": 3753,
      "Ġstation": 3754,
      "Ġwall": 3755,
      "ĠView": 3756,
      "Ġgames": 3757,
      "ervices": 3758,
      "How": 3759,
      "utions": 3760,
      "global": 3761,
      "gener": 3762,
      "Ġcause": 3763,
      "Ġimprove": 3764,
      ")(": 3765,
      "Current": 3766,
      "Ġgra": 3767,
      "ĠMe": 3768,
      "struct": 3769,
      "bed": 3770,
      "acher": 3771,
      "ening": 3772,
      "Ġpassed": 3773,
      "ruary": 3774,
      "Ġpoor": 3775,
      "ĠAng": 3776,
      "ingle": 3777,
      "iers": 3778,
      "ĠSoc": 3779,
      "band": 3780,
      "Ġdam": 3781,
      "dev": 3782,
      "Select": 3783,
      "Ġpopular": 3784,
      "AA": 3785,
      "Ġserved": 3786,
      "Ġpred": 3787,
      "fort": 3788,
      "state": 3789,
      "valid": 3790,
      "Ġdise": 3791,
      "ĠType": 3792,
      "Ġonline": 3793,
      "Ġcompon": 3794,
      "ĠÎ": 3795,
      "fficient": 3796,
      "Ð»": 3797,
      "Ġpict": 3798,
      "Ġorigin": 3799,
      "Ġchall": 3800,
      "ĠAfric": 3801,
      "ĠĠĠĠĠĠĠĠĠĠĠĠĠĠ": 3802,
      "Ġtraining": 3803,
      "Ġ...": 3804,
      "Ġapplic": 3805,
      "æĸ": 3806,
      "ampions": 3807,
      "Ġinstead": 3808,
      "ĠTrans": 3809,
      "enced": 3810,
      "irectory": 3811,
      "Repos": 3812,
      "erc": 3813,
      "rote": 3814,
      "push": 3815,
      "Ġperfect": 3816,
      "rs": 3817,
      "Ġhom": 3818,
      "Ġsystems": 3819,
      "Ġcollection": 3820,
      "First": 3821,
      "Http": 3822,
      "oo": 3823,
      "Configuration": 3824,
      "Ġcy": 3825,
      "Ġterms": 3826,
      "Ġmount": 3827,
      "Ġpolitical": 3828,
      "Det": 3829,
      "Ġleave": 3830,
      "ĠPe": 3831,
      "just": 3832,
      "ying": 3833,
      "Ġmoved": 3834,
      "ĠMon": 3835,
      "OM": 3836,
      "Ġ__": 3837,
      "uel": 3838,
      "ĠSm": 3839,
      "Ġ40": 3840,
      "Ġcoming": 3841,
      "å¤": 3842,
      "ades": 3843,
      "estern": 3844,
      "Ġeducation": 3845,
      "Ġloss": 3846,
      "rd": 3847,
      "Ġwebs": 3848,
      "Resource": 3849,
      "hood": 3850,
      "Ġprobably": 3851,
      "ned": 3852,
      "main": 3853,
      "Ġdig": 3854,
      "Ġnature": 3855,
      "Ġang": 3856,
      "html": 3857,
      "Ġgroups": 3858,
      "Ġ58": 3859,
      "ford": 3860,
      "Min": 3861,
      "Ġobj": 3862,
      "Player": 3863,
      "plit": 3864,
      "Ġlonger": 3865,
      "ĠSee": 3866,
      "Ġdoesn": 3867,
      "Ġsrc": 3868,
      "Ġoffice": 3869,
      "Ġexpect": 3870,
      "null": 3871,
      "ii": 3872,
      "Pre": 3873,
      "you": 3874,
      "achine": 3875,
      "Ġnorth": 3876,
      "mar": 3877,
      "Ġdou": 3878,
      "ivil": 3879,
      "Ġseems": 3880,
      "Ġknowledge": 3881,
      "Ġworked": 3882,
      "road": 3883,
      "bre": 3884,
      "Ġess": 3885,
      "icles": 3886,
      "Ġfollowed": 3887,
      "Ġrev": 3888,
      "ding": 3889,
      "ĠCounty": 3890,
      "Ġjud": 3891,
      "ilitary": 3892,
      "ounced": 3893,
      "Ġwrite": 3894,
      "Ġcomplete": 3895,
      "\\\\": 3896,
      "iqu": 3897,
      "06": 3898,
      "Ġbrother": 3899,
      "Ġassociated": 3900,
      "atal": 3901,
      "orge": 3902,
      "Enumer": 3903,
      "TH": 3904,
      "æĺ": 3905,
      "Ġeverything": 3906,
      "Ġconduct": 3907,
      "Ġ39": 3908,
      "Ġ2018": 3909,
      "Max": 3910,
      "Ġforward": 3911,
      "ĠOb": 3912,
      "ĠFrom": 3913,
      "Ġnil": 3914,
      "Ġrock": 3915,
      "Ġstream": 3916,
      "Ġden": 3917,
      "idge": 3918,
      "ris": 3919,
      "ĠHigh": 3920,
      "pat": 3921,
      "Ġcontinue": 3922,
      "Ġrights": 3923,
      "Server": 3924,
      "Ġrunning": 3925,
      "Ġshows": 3926,
      "bin": 3927,
      "ĠAg": 3928,
      "astic": 3929,
      "(_": 3930,
      "Ġcred": 3931,
      "iece": 3932,
      "lying": 3933,
      "Ġexam": 3934,
      "gl": 3935,
      "Ġrelationship": 3936,
      "ĠHouse": 3937,
      "78": 3938,
      "lier": 3939,
      "color": 3940,
      "based": 3941,
      "group": 3942,
      "Exec": 3943,
      "Ġbecom": 3944,
      "amera": 3945,
      "Ġ2019": 3946,
      "rong": 3947,
      "Char": 3948,
      "ĠSome": 3949,
      "ĠEm": 3950,
      "Ġincrease": 3951,
      "Us": 3952,
      "ros": 3953,
      "Ġareas": 3954,
      "riter": 3955,
      "pri": 3956,
      "izing": 3957,
      "Ġnecessary": 3958,
      "EST": 3959,
      "Ġfail": 3960,
      "Ġfeet": 3961,
      "____": 3962,
      "icon": 3963,
      "Ġseemed": 3964,
      "Ġapproach": 3965,
      "source": 3966,
      "Ġ195": 3967,
      "aid": 3968,
      "Ġanim": 3969,
      "ĠJapan": 3970,
      "Ä±": 3971,
      "Ġforce": 3972,
      "istry": 3973,
      "CON": 3974,
      "Ġdisplay": 3975,
      "ĠFebruary": 3976,
      "ĠčĊ": 3977,
      "commit": 3978,
      "Ġblood": 3979,
      "ĠII": 3980,
      "flow": 3981,
      "zure": 3982,
      "Ġexcept": 3983,
      "Ġtowards": 3984,
      "xy": 3985,
      "Ġliter": 3986,
      "Ġneeded": 3987,
      "Ġmedia": 3988,
      "Ġ2016": 3989,
      "PHON": 3990,
      "isf": 3991,
      "âĶĢâĶĢ": 3992,
      "Ġsun": 3993,
      "his": 3994,
      "ĠRed": 3995,
      "PI": 3996,
      "ynt": 3997,
      "Ġshare": 3998,
      "iation": 3999,
      "Ġ2017": 4000,
      "asion": 4001,
      "stract": 4002,
      "aved": 4003,
      "Ġmid": 4004,
      "SS": 4005,
      "Ġ22": 4006,
      "Ġchurch": 4007,
      "Ġbroad": 4008,
      "${": 4009,
      "Equals": 4010,
      "inition": 4011,
      "Ġpick": 4012,
      "ĠMiss": 4013,
      "Ġwanted": 4014,
      "Ġwatch": 4015,
      "ĠWilliam": 4016,
      "oly": 4017,
      "Refer": 4018,
      "CE": 4019,
      "Ġproducts": 4020,
      "node": 4021,
      "ani": 4022,
      "Ġlabel": 4023,
      "ĠDate": 4024,
      "_.": 4025,
      "Parameter": 4026,
      "asc": 4027,
      "ĠSu": 4028,
      "Ġrisk": 4029,
      "anging": 4030,
      "ĠDr": 4031,
      "Ã¶": 4032,
      "Ġ2010": 4033,
      "Ġ});": 4034,
      "Ġparts": 4035,
      "Ġdeveloped": 4036,
      "Ġactivity": 4037,
      "Ġwood": 4038,
      "OB": 4039,
      "Repository": 4040,
      "Ġcast": 4041,
      "Ġlikely": 4042,
      "ĠDav": 4043,
      "Ġfem": 4044,
      "cial": 4045,
      "het": 4046,
      "more": 4047,
      "Ġstatus": 4048,
      "Ġissues": 4049,
      "url": 4050,
      "Bar": 4051,
      "Ġcontribut": 4052,
      "Ġnode": 4053,
      "Ġbed": 4054,
      "Ġfast": 4055,
      "Ġpack": 4056,
      "Game": 4057,
      "known": 4058,
      "Ġswe": 4059,
      "ĠLord": 4060,
      "Ġarriv": 4061,
      "rypt": 4062,
      "IV": 4063,
      "Ġmap": 4064,
      "Listener": 4065,
      "Ġsouth": 4066,
      "Ġsense": 4067,
      "Lin": 4068,
      "server": 4069,
      "Ġconsist": 4070,
      "Ġmanagement": 4071,
      "Ġ);": 4072,
      "ĠGeneral": 4073,
      "æĪ": 4074,
      "Ġcomplex": 4075,
      "Ġdescribed": 4076,
      "Ġdead": 4077,
      "Bl": 4078,
      "Activity": 4079,
      "etic": 4080,
      "lim": 4081,
      "Width": 4082,
      "Ġvoice": 4083,
      "wise": 4084,
      "Ġsn": 4085,
      "oted": 4086,
      "Ã¤": 4087,
      "conn": 4088,
      "Ġfa": 4089,
      "Ġbur": 4090,
      "Ġflo": 4091,
      "iant": 4092,
      "ĠFile": 4093,
      "Ġusually": 4094,
      "agnost": 4095,
      "Ġque": 4096,
      "Ġcontinued": 4097,
      "input": 4098,
      "Ġrelease": 4099,
      "Ġ2015": 4100,
      "Ġoutside": 4101,
      "Ġregular": 4102,
      "change": 4103,
      "ĠPark": 4104,
      "_{\\": 4105,
      "Ġissue": 4106,
      "Ġago": 4107,
      "Ġcells": 4108,
      "zz": 4109,
      "Ġhundred": 4110,
      "hold": 4111,
      "Ġbox": 4112,
      "angle": 4113,
      "Ġtravel": 4114,
      "(%": 4115,
      "Ġtax": 4116,
      "Ġcard": 4117,
      "46": 4118,
      "Ġmyself": 4119,
      "pc": 4120,
      "Ġarray": 4121,
      "Ġrelig": 4122,
      "Ġrecomm": 4123,
      "ĠAmerica": 4124,
      "47": 4125,
      "Ġremember": 4126,
      "Ġvalid": 4127,
      "iber": 4128,
      "Ġsort": 4129,
      "Ġimmedi": 4130,
      "Ġ()": 4131,
      "ViewModel": 4132,
      "è¯": 4133,
      "Ġ26": 4134,
      "Ġvirtual": 4135,
      "Ġsett": 4136,
      "Ġcompl": 4137,
      "ĠIS": 4138,
      "Ġstructure": 4139,
      "Ġ2014": 4140,
      "Ġbeautiful": 4141,
      "Ġarticle": 4142,
      "ety": 4143,
      "Block": 4144,
      "iler": 4145,
      "arter": 4146,
      "Ġalthough": 4147,
      "Ġmodern": 4148,
      "Ġsection": 4149,
      "Ġextra": 4150,
      "eq": 4151,
      "span": 4152,
      ",%": 4153,
      "opyright": 4154,
      "can": 4155,
      "aven": 4156,
      ".'": 4157,
      "Ġconsum": 4158,
      "Ġstrateg": 4159,
      "active": 4160,
      "json": 4161,
      "ĠMus": 4162,
      "Ġ2012": 4163,
      "Controller": 4164,
      "Ġresource": 4165,
      "aker": 4166,
      "Ġindustry": 4167,
      "Ġ23": 4168,
      "Ġforeach": 4169,
      "Ġgold": 4170,
      "ipe": 4171,
      "Ġshown": 4172,
      "arr": 4173,
      "create": 4174,
      "Ġful": 4175,
      "ieved": 4176,
      "Do": 4177,
      "Ġens": 4178,
      "ependent": 4179,
      "ocol": 4180,
      "ĠĠĠĠĊ": 4181,
      "PHONY": 4182,
      "Ġhistor": 4183,
      "Ġoption": 4184,
      "Ġ45": 4185,
      "cel": 4186,
      "nop": 4187,
      "Ġvict": 4188,
      "irth": 4189,
      "Ġlimit": 4190,
      "MS": 4191,
      "Ġreported": 4192,
      "Ġproduced": 4193,
      "png": 4194,
      "Ġking": 4195,
      "ĠAcc": 4196,
      "ously": 4197,
      "ama": 4198,
      "Ġinitial": 4199,
      "Ġcontact": 4200,
      "Ġprogress": 4201,
      "Target": 4202,
      "lt": 4203,
      "Url": 4204,
      "respon": 4205,
      "lands": 4206,
      "Ġweb": 4207,
      "ugin": 4208,
      "Ġvia": 4209,
      "CP": 4210,
      "chan": 4211,
      "raphics": 4212,
      "Ġ2013": 4213,
      "ĠGover": 4214,
      "ĠArt": 4215,
      "ington": 4216,
      "Ġofficial": 4217,
      "42": 4218,
      "Ġbooks": 4219,
      "ournal": 4220,
      "ĠTe": 4221,
      "obile": 4222,
      "Ġfight": 4223,
      "ns": 4224,
      "Ġstandard": 4225,
      "Ġslow": 4226,
      "ĠGerman": 4227,
      "/*": 4228,
      "ĠCour": 4229,
      "Ġestablished": 4230,
      "%%%%%%%%": 4231,
      "Ġmethods": 4232,
      "DB": 4233,
      "Ġcontract": 4234,
      "Ġnov": 4235,
      "Ġstru": 4236,
      "Ġpercent": 4237,
      "Ġlocation": 4238,
      "ils": 4239,
      "Ab": 4240,
      "Ġwrote": 4241,
      "Spec": 4242,
      "gor": 4243,
      "PE": 4244,
      "well": 4245,
      "ca": 4246,
      "ny": 4247,
      "72": 4248,
      "Ġhear": 4249,
      "():": 4250,
      "Ġtypes": 4251,
      "Ġstop": 4252,
      "Ġmis": 4253,
      "imer": 4254,
      "ĠInter": 4255,
      "Ġsometimes": 4256,
      "ORD": 4257,
      "Work": 4258,
      "entity": 4259,
      "ML": 4260,
      "ESS": 4261,
      "Ġfair": 4262,
      "Ġrelated": 4263,
      "Ġboard": 4264,
      "title": 4265,
      "Ġelection": 4266,
      "Ġeight": 4267,
      "Ġlines": 4268,
      "Ġpotential": 4269,
      "omen": 4270,
      "Debug": 4271,
      "android": 4272,
      "Ġetc": 4273,
      "Ġmag": 4274,
      "ico": 4275,
      "rated": 4276,
      "long": 4277,
      "itect": 4278,
      "Ġ2011": 4279,
      "Ġalone": 4280,
      "Ġincreased": 4281,
      "width": 4282,
      "oring": 4283,
      "Ġnews": 4284,
      "pm": 4285,
      "aign": 4286,
      "Tab": 4287,
      "Ġbound": 4288,
      "istics": 4289,
      "Ġstage": 4290,
      "Ġeffects": 4291,
      "Ġtherefore": 4292,
      "java": 4293,
      "Order": 4294,
      "Project": 4295,
      "icip": 4296,
      "mitted": 4297,
      "eft": 4298,
      "Ġgirl": 4299,
      "æķ": 4300,
      "ara": 4301,
      "Ġmeasure": 4302,
      "error": 4303,
      "Ġandroidx": 4304,
      "Ġcolumn": 4305,
      "Ġtemper": 4306,
      "Ġviol": 4307,
      "Ġasync": 4308,
      "Ġfiles": 4309,
      "Ġstudies": 4310,
      "Ġactive": 4311,
      "Ġmention": 4312,
      "Down": 4313,
      "ĠColor": 4314,
      "Ġhttp": 4315,
      "max": 4316,
      "Ġ(_": 4317,
      "Ġtakes": 4318,
      "inct": 4319,
      "Ġpurch": 4320,
      "Ġoccur": 4321,
      "Has": 4322,
      "82": 4323,
      "Ġ29": 4324,
      "encies": 4325,
      "ĠĠĠĠĠĠĠĠĠĠĠĠĠĠĠĠĠĠĠĠĠĠĠĠĠĠĠĠĠĠĠĠĠĠĠ": 4326,
      "Now": 4327,
      "vey": 4328,
      "miss": 4329,
      "Ġbehav": 4330,
      "ĠChurch": 4331,
      "Ġnor": 4332,
      "\\\"": 4333,
      "Ġinj": 4334,
      "Ġexpression": 4335,
      "button": 4336,
      "Xml": 4337,
      "Ġproblems": 4338,
      "ĠNow": 4339,
      "Ġworth": 4340,
      "Level": 4341,
      "ĠRev": 4342,
      "WriteLine": 4343,
      "ĠIndian": 4344,
      "asure": 4345,
      "bf": 4346,
      "Ġautom": 4347,
      "Ġaverage": 4348,
      "íķ": 4349,
      "ĠConsole": 4350,
      "onstr": 4351,
      "uge": 4352,
      "ees": 4353,
      "Ġinn": 4354,
      "Ġexact": 4355,
      "Ġeval": 4356,
      "}.": 4357,
      "itte": 4358,
      "Ġappoint": 4359,
      "Ġsurface": 4360,
      "image": 4361,
      "Ġgrowth": 4362,
      "Ġmaint": 4363,
      "etry": 4364,
      "Ġpractice": 4365,
      "\").": 4366,
      "Ġge": 4367,
      "Ġcult": 4368,
      "char": 4369,
      "Ġlearning": 4370,
      "Ġbyte": 4371,
      "ĠEvent": 4372,
      "ĠFin": 4373,
      "Ġconstruct": 4374,
      "Ġprovides": 4375,
      "host": 4376,
      "Ġselect": 4377,
      "Ġcondition": 4378,
      "Ġprofessional": 4379,
      "Ġord": 4380,
      "Ġconcern": 4381,
      "Open": 4382,
      "link": 4383,
      "Ġ2020": 4384,
      "Ã§": 4385,
      "illing": 4386,
      "ĠSch": 4387,
      "Ġscreen": 4388,
      "essages": 4389,
      "73": 4390,
      "Ġdistrict": 4391,
      "target": 4392,
      "ancy": 4393,
      "################": 4394,
      "ampionship": 4395,
      "arser": 4396,
      "df": 4397,
      "Ġ28": 4398,
      "Ġdiscover": 4399,
      "aches": 4400,
      "Ġspeed": 4401,
      "Ġprep": 4402,
      ">,": 4403,
      "Ġwebsite": 4404,
      "ĠMrs": 4405,
      "Ġvillage": 4406,
      "Ġdesigned": 4407,
      "96": 4408,
      "Frame": 4409,
      "Ġarr": 4410,
      "Ġprec": 4411,
      "hest": 4412,
      "ANT": 4413,
      "ĠPresident": 4414,
      "åĬ": 4415,
      "Ġlevels": 4416,
      "asons": 4417,
      "mat": 4418,
      "Ġopened": 4419,
      "Ġinternational": 4420,
      "Ġchanged": 4421,
      "ĠIr": 4422,
      "Ġaud": 4423,
      "Types": 4424,
      "Ġcourt": 4425,
      "Ġcand": 4426,
      "creen": 4427,
      "Ġstreng": 4428,
      "Expression": 4429,
      "Ġsave": 4430,
      "ĠDon": 4431,
      "ĠPat": 4432,
      "erved": 4433,
      "Di": 4434,
      "Ġheight": 4435,
      "ĠAc": 4436,
      "ica": 4437,
      "Ġ/**": 4438,
      "ĠId": 4439,
      "Ġspirit": 4440,
      "Ġready": 4441,
      "ishing": 4442,
      "Ġthroughout": 4443,
      "Ġattention": 4444,
      "Ġhour": 4445,
      "Ġimpact": 4446,
      "Ġstore": 4447,
      "message": 4448,
      "Engine": 4449,
      "Ġplant": 4450,
      "IO": 4451,
      "atives": 4452,
      "Ġsea": 4453,
      "Ġappeared": 4454,
      "Ġpretty": 4455,
      "Address": 4456,
      "ĠTime": 4457,
      "Ġconnect": 4458,
      "Ġweeks": 4459,
      "Ġassum": 4460,
      "Ġcountries": 4461,
      "aily": 4462,
      "gu": 4463,
      "Ġtyp": 4464,
      "Ġprior": 4465,
      "ributes": 4466,
      "])": 4467,
      "08": 4468,
      "Range": 4469,
      "Ġupdate": 4470,
      "../../": 4471,
      "Ġsimply": 4472,
      "acity": 4473,
      "ĠSan": 4474,
      "FA": 4475,
      "Ġmultiple": 4476,
      "Ġrecent": 4477,
      "Ġerr": 4478,
      "ancial": 4479,
      "Ġstra": 4480,
      "ios": 4481,
      "osing": 4482,
      "ĠFrance": 4483,
      "Description": 4484,
      "Ġpolicy": 4485,
      "ordin": 4486,
      "Ġneigh": 4487,
      "çĶ¨": 4488,
      "oding": 4489,
      "Ġletter": 4490,
      "Ġincludes": 4491,
      "$.": 4492,
      "Ġ/>": 4493,
      "Ġevidence": 4494,
      "SC": 4495,
      "Ġprice": 4496,
      "Ġthous": 4497,
      "Ġweight": 4498,
      "Ġtrying": 4499,
      "eline": 4500,
      "09": 4501,
      "Ġoperation": 4502,
      "Ġways": 4503,
      "Ġsche": 4504,
      "ĠDist": 4505,
      "Ġtechnology": 4506,
      "quence": 4507,
      "Ġdog": 4508,
      "Ġhit": 4509,
      "ĠCollege": 4510,
      "ĠName": 4511,
      "Ġexperi": 4512,
      "43": 4513,
      "ĠFirst": 4514,
      "ĠEast": 4515,
      "stra": 4516,
      "åľ": 4517,
      "Controls": 4518,
      "Ġcompanies": 4519,
      "ĠID": 4520,
      "HT": 4521,
      "Connection": 4522,
      "Ġqual": 4523,
      "ĠLeague": 4524,
      "BU": 4525,
      "ragment": 4526,
      "Ġstates": 4527,
      "adata": 4528,
      "ado": 4529,
      "hat": 4530,
      "Ġfear": 4531,
      "Ġcompared": 4532,
      "Ġwindow": 4533,
      "pass": 4534,
      "ĠWhile": 4535,
      "Ġadditional": 4536,
      "Ġinvolved": 4537,
      "thon": 4538,
      "Ptr": 4539,
      "ĠLa": 4540,
      "gorith": 4541,
      "wood": 4542,
      "request": 4543,
      "ental": 4544,
      "arily": 4545,
      "Child": 4546,
      "px": 4547,
      "olic": 4548,
      "hent": 4549,
      "Ġbuy": 4550,
      "Linq": 4551,
      "Ġleading": 4552,
      "Ġtour": 4553,
      "Ġ2008": 4554,
      "41": 4555,
      "Ġplaying": 4556,
      "iled": 4557,
      "07": 4558,
      "Ġdepend": 4559,
      "RC": 4560,
      "ĠOf": 4561,
      "idden": 4562,
      "Output": 4563,
      "iance": 4564,
      "rep": 4565,
      "Ġsend": 4566,
      "Ġmechan": 4567,
      "ĠArg": 4568,
      "Ġpurpose": 4569,
      "info": 4570,
      "Ġcarry": 4571,
      "Ġreve": 4572,
      "Row": 4573,
      "ĠPort": 4574,
      "Ġdro": 4575,
      "True": 4576,
      "Ġfavor": 4577,
      "ĠJust": 4578,
      "ressed": 4579,
      "Ġrace": 4580,
      "Su": 4581,
      "ĠIndia": 4582,
      ".]": 4583,
      "otal": 4584,
      "client": 4585,
      "Ġ27": 4586,
      "oin": 4587,
      "Ġpattern": 4588,
      "Ġserver": 4589,
      "ĠMark": 4590,
      "Ġboy": 4591,
      "Ġsaf": 4592,
      "Dom": 4593,
      "Ġresources": 4594,
      "Access": 4595,
      "urt": 4596,
      "Ġmut": 4597,
      "Ġdecided": 4598,
      "kt": 4599,
      "ĠEr": 4600,
      "udden": 4601,
      "Ġproper": 4602,
      "verse": 4603,
      "Ġ2009": 4604,
      "esh": 4605,
      "erve": 4606,
      "unit": 4607,
      "$,": 4608,
      "ĠBoolean": 4609,
      "Ġrule": 4610,
      "ĠQue": 4611,
      "level": 4612,
      "Ġut": 4613,
      "Ġarm": 4614,
      "ospital": 4615,
      "BC": 4616,
      "Ġconnection": 4617,
      "Ġdevice": 4618,
      "itable": 4619,
      "81": 4620,
      "âĢĲ": 4621,
      "Ġitems": 4622,
      "apping": 4623,
      "ĠAir": 4624,
      "ĠNe": 4625,
      "Ġstar": 4626,
      "after": 4627,
      "imately": 4628,
      "ĠText": 4629,
      "TO": 4630,
      "Ġcurrently": 4631,
      "Ðº": 4632,
      "Ġreached": 4633,
      "Ġannounced": 4634,
      "Ġnormal": 4635,
      "Can": 4636,
      "frac": 4637,
      "Ġmilitary": 4638,
      "Ġselected": 4639,
      "Ġwide": 4640,
      "Ġ${": 4641,
      "Ġperhaps": 4642,
      "Ġhous": 4643,
      "Over": 4644,
      "Ġanswer": 4645,
      "Ġproperties": 4646,
      "Height": 4647,
      "Ġprevent": 4648,
      "Ġsex": 4649,
      "ufact": 4650,
      "ĠOur": 4651,
      "rate": 4652,
      "Process": 4653,
      "MakeFiles": 4654,
      "cons": 4655,
      "Items": 4656,
      "Ġallowed": 4657,
      "Ġfine": 4658,
      "pite": 4659,
      "Ġquestions": 4660,
      "Ġgreater": 4661,
      "Met": 4662,
      "idget": 4663,
      "had": 4664,
      "cor": 4665,
      "Ġsal": 4666,
      "itter": 4667,
      "win": 4668,
      "Ġshowed": 4669,
      "under": 4670,
      "post": 4671,
      "ĉĉĉĉĉĉ": 4672,
      "txt": 4673,
      "olid": 4674,
      "Ġdisease": 4675,
      "Case": 4676,
      "Ġactual": 4677,
      "ATE": 4678,
      "pers": 4679,
      "Function": 4680,
      "Offset": 4681,
      "ĠRead": 4682,
      "lation": 4683,
      "Dev": 4684,
      "Header": 4685,
      "Ġsem": 4686,
      "ĠEuropean": 4687,
      "ipp": 4688,
      "ĠPlay": 4689,
      "Ġplaced": 4690,
      "tag": 4691,
      "ĠWeb": 4692,
      "ĠUs": 4693,
      "Font": 4694,
      "itation": 4695,
      "Ġship": 4696,
      "Ġextrem": 4697,
      "pop": 4698,
      "izes": 4699,
      "Ġdemonstr": 4700,
      "Ġcorrect": 4701,
      "ka": 4702,
      "Ġplatform": 4703,
      "++)": 4704,
      "NA": 4705,
      "Ġtree": 4706,
      "oyal": 4707,
      "ias": 4708,
      "ĠGl": 4709,
      "Ñĥ": 4710,
      "Ġinside": 4711,
      "Ġearth": 4712,
      "Ġbal": 4713,
      "ements": 4714,
      "Ġadminist": 4715,
      "Ġbank": 4716,
      "awn": 4717,
      "Ġ{}": 4718,
      "Strip": 4719,
      "yr": 4720,
      "Ġsecret": 4721,
      "ttps": 4722,
      "Ġnearly": 4723,
      "Ġdetails": 4724,
      "Script": 4725,
      "63": 4726,
      "ĠInternational": 4727,
      "Ġperformed": 4728,
      "ds": 4729,
      "usion": 4730,
      "ĠSub": 4731,
      "Ġdegree": 4732,
      "parent": 4733,
      "Ġdistance": 4734,
      "bon": 4735,
      "Custom": 4736,
      "59": 4737,
      "Ġbeginning": 4738,
      "spec": 4739,
      "Ġconstant": 4740,
      "Return": 4741,
      "Filter": 4742,
      "Ġprincip": 4743,
      "Ġcenter": 4744,
      "Assert": 4745,
      "Ġdirection": 4746,
      "ube": 4747,
      "Ġstri": 4748,
      "Ġnames": 4749,
      "Ġmaster": 4750,
      "UM": 4751,
      "house": 4752,
      "Ġgoal": 4753,
      "iring": 4754,
      "ĠRiver": 4755,
      "ĠMod": 4756,
      "ĠAssoci": 4757,
      "Ġfell": 4758,
      "draw": 4759,
      "Ġkept": 4760,
      "Rel": 4761,
      "ulated": 4762,
      "ä¸Ģ": 4763,
      "igger": 4764,
      "][": 4765,
      "endregion": 4766,
      "inner": 4767,
      "Ġnumer": 4768,
      "born": 4769,
      "ationToken": 4770,
      "acters": 4771,
      "actions": 4772,
      "Ġgone": 4773,
      "Ġavoid": 4774,
      "Ġsummer": 4775,
      "uate": 4776,
      "Ġwild": 4777,
      "Ġunique": 4778,
      "Ġproposed": 4779,
      "gt": 4780,
      "case": 4781,
      "gar": 4782,
      "Ġsecurity": 4783,
      "Ġhus": 4784,
      "section": 4785,
      "Ġwind": 4786,
      "Ġdecision": 4787,
      "osis": 4788,
      "PS": 4789,
      "Ġdaughter": 4790,
      "ĠGame": 4791,
      "Ġbutton": 4792,
      "HO": 4793,
      "Ġconv": 4794,
      "Ġvers": 4795,
      "?âĢĿ": 4796,
      "Ġenter": 4797,
      "ĠMor": 4798,
      "Ġaim": 4799,
      "default": 4800,
      "Ġplayers": 4801,
      "ĠAnt": 4802,
      "oles": 4803,
      "Ġroot": 4804,
      "MAKE": 4805,
      "ĠStreet": 4806,
      "ĠEar": 4807,
      "ç»": 4808,
      "Ġunit": 4809,
      "Ġdriv": 4810,
      "Ġmarried": 4811,
      "aper": 4812,
      "ett": 4813,
      "ymbol": 4814,
      "Application": 4815,
      "Ġmicro": 4816,
      "reek": 4817,
      "Ġsomeone": 4818,
      "imation": 4819,
      "Ġhttps": 4820,
      "Ġstaff": 4821,
      "omb": 4822,
      "ebp": 4823,
      "Ġsaying": 4824,
      "Ġleaders": 4825,
      "Ġlives": 4826,
      "Ġsurpr": 4827,
      "ban": 4828,
      "rast": 4829,
      "Append": 4830,
      "Ġcarried": 4831,
      "Ġgrand": 4832,
      "tra": 4833,
      "abit": 4834,
      "Ġexecut": 4835,
      "arrow": 4836,
      "rupt": 4837,
      "XX": 4838,
      "SD": 4839,
      "Ġfootball": 4840,
      "ĠOff": 4841,
      "Ġgreen": 4842,
      "Ġball": 4843,
      "Ġdie": 4844,
      "Ġparameters": 4845,
      "uated": 4846,
      "ĠAND": 4847,
      "Pos": 4848,
      "----------------------------------------------------------------": 4849,
      "Ġlat": 4850,
      "ittee": 4851,
      "Last": 4852,
      "Ġformat": 4853,
      "Threading": 4854,
      "elta": 4855,
      "first": 4856,
      "Ġquickly": 4857,
      "IR": 4858,
      "62": 4859,
      "ky": 4860,
      "Inv": 4861,
      "æĺ¯": 4862,
      "Ġesc": 4863,
      "Next": 4864,
      "Ġseven": 4865,
      "oom": 4866,
      "Link": 4867,
      "imple": 4868,
      "aling": 4869,
      "Post": 4870,
      "Ġwriter": 4871,
      "AV": 4872,
      "FT": 4873,
      "Ġcontains": 4874,
      "rief": 4875,
      "onds": 4876,
      "Ġsatisf": 4877,
      "ĠLoc": 4878,
      "Ġfinally": 4879,
      "PL": 4880,
      "Grid": 4881,
      "Ġ37": 4882,
      "Ġfeed": 4883,
      "Ġprote": 4884,
      "othing": 4885,
      "Ġhappy": 4886,
      "ĠTra": 4887,
      "Ġelements": 4888,
      "project": 4889,
      "ĠSir": 4890,
      "raz": 4891,
      "Ġ~": 4892,
      "Reference": 4893,
      "pid": 4894,
      "åŃ": 4895,
      "Ġchief": 4896,
      "Ġsleep": 4897,
      "last": 4898,
      "ĠOpen": 4899,
      "ĠRem": 4900,
      "Ġjoined": 4901,
      "Ġinform": 4902,
      "\"))": 4903,
      "Ġinterface": 4904,
      "grad": 4905,
      "Ġserious": 4906,
      "They": 4907,
      "Ġusers": 4908,
      "Ġlack": 4909,
      "ĠMich": 4910,
      "ĠST": 4911,
      "bra": 4912,
      "Ġmodels": 4913,
      "ATH": 4914,
      "Ġdb": 4915,
      "ĠStud": 4916,
      "Use": 4917,
      "Ġemer": 4918,
      "Ġrepe": 4919,
      "Ġpositive": 4920,
      "err": 4921,
      "ECT": 4922,
      "Ġir": 4923,
      "Ġreading": 4924,
      "Ġeasily": 4925,
      "Window": 4926,
      "tml": 4927,
      "align": 4928,
      "Ġremain": 4929,
      "Ġmemory": 4930,
      "ĠService": 4931,
      "ĠPal": 4932,
      "lor": 4933,
      "Ġinvestig": 4934,
      "Ġpresented": 4935,
      "Ġaward": 4936,
      "look": 4937,
      "Ġformed": 4938,
      "Ġdoubt": 4939,
      "has": 4940,
      "ares": 4941,
      "ĠPaul": 4942,
      "FIL": 4943,
      "Ġ2007": 4944,
      "AreEqual": 4945,
      "ĠPhil": 4946,
      "Ġnote": 4947,
      "Am": 4948,
      "ecause": 4949,
      "ĠâĪ": 4950,
      "ocr": 4951,
      "Ġdirectly": 4952,
      "ĠOut": 4953,
      "Ġfocus": 4954,
      "Ġsuccessful": 4955,
      "ĠGreat": 4956,
      "Ġisn": 4957,
      "outhern": 4958,
      "AY": 4959,
      "Ġfif": 4960,
      "inated": 4961,
      "ĠCON": 4962,
      "ĠChina": 4963,
      "riage": 4964,
      "Ġsurv": 4965,
      "ĠJames": 4966,
      "Ġdistributed": 4967,
      "Ġrow": 4968,
      "ĠHere": 4969,
      "Ġprimary": 4970,
      "Ġmeeting": 4971,
      "ams": 4972,
      "Member": 4973,
      "Ġoccup": 4974,
      "Ġtransfer": 4975,
      "Ġ60": 4976,
      "rab": 4977,
      "Ġanc": 4978,
      "ĠChristian": 4979,
      "Ġgenerally": 4980,
      "cho": 4981,
      "Sche": 4982,
      "event": 4983,
      "Ġbey": 4984,
      "Ġreceive": 4985,
      "98": 4986,
      "Ġpresident": 4987,
      "tool": 4988,
      "ĠCouncil": 4989,
      "orthern": 4990,
      "img": 4991,
      "71": 4992,
      "Ġexception": 4993,
      "Ġability": 4994,
      "Ġdeb": 4995,
      "Ġhor": 4996,
      "orial": 4997,
      "omas": 4998,
      "Ġ38": 4999,
      "Ġwish": 5000,
      "ancell": 5001,
      "Left": 5002,
      "Ġsolution": 5003,
      "Ġwrong": 5004,
      "Ġdownload": 5005,
      "Ġmagn": 5006,
      "ander": 5007,
      "pack": 5008,
      "Yes": 5009,
      "Ġwidth": 5010,
      "Ġbeyond": 5011,
      "ao": 5012,
      "ĠUser": 5013,
      "Ġconcept": 5014,
      "edia": 5015,
      "Ġcampaign": 5016,
      "Ġimag": 5017,
      "Ġpen": 5018,
      "ĠGeorge": 5019,
      "find": 5020,
      "ĠMore": 5021,
      "ibly": 5022,
      "ynamic": 5023,
      "eful": 5024,
      "Show": 5025,
      "Ġcook": 5026,
      "Buffer": 5027,
      "Entry": 5028,
      "PR": 5029,
      "useum": 5030,
      "ayer": 5031,
      "Ġriver": 5032,
      "Ġhair": 5033,
      "Ġgives": 5034,
      "Ġactivities": 5035,
      "è®": 5036,
      "esp": 5037,
      "stream": 5038,
      "Ġmedical": 5039,
      "dep": 5040,
      "History": 5041,
      "sg": 5042,
      "PRO": 5043,
      "Ġtill": 5044,
      "Ġcompar": 5045,
      "Ġquant": 5046,
      "Ġtruth": 5047,
      "Ġclin": 5048,
      "Ġrequ": 5049,
      "ded": 5050,
      "Enumerable": 5051,
      "Ġfort": 5052,
      "cope": 5053,
      "mas": 5054,
      "Ġdru": 5055,
      "king": 5056,
      "night": 5057,
      "elebr": 5058,
      "ilies": 5059,
      "Ġmiddle": 5060,
      "uster": 5061,
      "acc": 5062,
      ",'": 5063,
      "ĉĊ": 5064,
      "ĠJack": 5065,
      "Services": 5066,
      "Ġplaces": 5067,
      "stitute": 5068,
      "Ġinstit": 5069,
      "Ġdeliver": 5070,
      "Ġprop": 5071,
      "Ġhar": 5072,
      "orary": 5073,
      "Ġmiles": 5074,
      "Container": 5075,
      "Ġphysical": 5076,
      "MO": 5077,
      "uous": 5078,
      "QL": 5079,
      "ĠBlack": 5080,
      "ael": 5081,
      "isions": 5082,
      "åº": 5083,
      "âĤ": 5084,
      "è¡": 5085,
      "97": 5086,
      "Ġtrou": 5087,
      "Dec": 5088,
      "rey": 5089,
      "emic": 5090,
      "rial": 5091,
      "Ġassist": 5092,
      "Microsoft": 5093,
      "Ġveh": 5094,
      "Local": 5095,
      "Ġhref": 5096,
      "Ġdefined": 5097,
      "const": 5098,
      "ĠGroup": 5099,
      "Ġcapital": 5100,
      "ĠBer": 5101,
      "Ġtried": 5102,
      "enge": 5103,
      "ĠBuild": 5104,
      "Ġtouch": 5105,
      "iling": 5106,
      "ĠForm": 5107,
      "Ñı": 5108,
      "Ġgoes": 5109,
      "enses": 5110,
      "61": 5111,
      "icate": 5112,
      "dec": 5113,
      "Ġtrust": 5114,
      "claim": 5115,
      "ĠMary": 5116,
      "Ġuses": 5117,
      ",--": 5118,
      "iforn": 5119,
      ">()": 5120,
      "ĠCourt": 5121,
      "Any": 5122,
      "ĠDiv": 5123,
      "ression": 5124,
      "Ġstood": 5125,
      "Ġdim": 5126,
      "Ġpush": 5127,
      "ensity": 5128,
      "Ġassess": 5129,
      "Ġcivil": 5130,
      "Mon": 5131,
      "ĠCopyright": 5132,
      "Ġpresence": 5133,
      "Ġspect": 5134,
      "ĠSen": 5135,
      "Ġcharge": 5136,
      "anish": 5137,
      "uit": 5138,
      "undle": 5139,
      "atively": 5140,
      "Ġcomment": 5141,
      "Ġyourself": 5142,
      "ĠWork": 5143,
      "Ġinfluence": 5144,
      "ĠĠĠĠĠĠĠĠĠĠĠĠĠĠĠĠĠ": 5145,
      "Ġfinished": 5146,
      "ĠBel": 5147,
      "Mar": 5148,
      "Vector": 5149,
      "ests": 5150,
      "Ġgun": 5151,
      "Ġutil": 5152,
      "him": 5153,
      "EC": 5154,
      "Ġmovement": 5155,
      "ĠRich": 5156,
      "Ġpull": 5157,
      "Ġ2006": 5158,
      "Ġeye": 5159,
      "zer": 5160,
      "Ġtypeof": 5161,
      "Ġdifference": 5162,
      "Ġones": 5163,
      "Ġchance": 5164,
      "LIB": 5165,
      "Ġinsp": 5166,
      "Ġfit": 5167,
      "Ġspent": 5168,
      "amm": 5169,
      "ĠAut": 5170,
      "ville": 5171,
      "ĠMat": 5172,
      "ĠInst": 5173,
      "Ġteacher": 5174,
      "ript": 5175,
      "Ġblue": 5176,
      "gate": 5177,
      "ĠMain": 5178,
      "Ġcompleted": 5179,
      "gment": 5180,
      "aa": 5181,
      "common": 5182,
      "antic": 5183,
      "hi": 5184,
      "Ġcommer": 5185,
      "Reader": 5186,
      "Ġeffective": 5187,
      "page": 5188,
      "olar": 5189,
      "Ġpeace": 5190,
      "ãģ®": 5191,
      "ixt": 5192,
      "Ġopportunity": 5193,
      "oms": 5194,
      "Ġsusp": 5195,
      "Ġoil": 5196,
      "Ġnumbers": 5197,
      "cite": 5198,
      "Adapter": 5199,
      "Should": 5200,
      "ĠDem": 5201,
      "entle": 5202,
      "Ġmanner": 5203,
      "ĠAp": 5204,
      "Ġhusband": 5205,
      "remarks": 5206,
      "Parameters": 5207,
      "Ġtim": 5208,
      "Ġ31": 5209,
      "OBJ": 5210,
      "Ġculture": 5211,
      "Dialog": 5212,
      "iate": 5213,
      "Tasks": 5214,
      "Ġgiving": 5215,
      "Mem": 5216,
      "å°": 5217,
      "ĠDateTime": 5218,
      "56": 5219,
      "Ð°Ð": 5220,
      "Parse": 5221,
      "alle": 5222,
      "layout": 5223,
      "ulations": 5224,
      "ether": 5225,
      "Ġobtained": 5226,
      "Ġhop": 5227,
      "Only": 5228,
      "nor": 5229,
      "ston": 5230,
      "lies": 5231,
      "Ġparameter": 5232,
      "Ġanaly": 5233,
      "Ġhighly": 5234,
      "Ġrecently": 5235,
      "Ġfinancial": 5236,
      "ifornia": 5237,
      "peed": 5238,
      "Ġconstit": 5239,
      "ATION": 5240,
      "script": 5241,
      "Ġ2021": 5242,
      "ago": 5243,
      "Ġobserved": 5244,
      "Ġentry": 5245,
      "orrow": 5246,
      "ario": 5247,
      "bour": 5248,
      "Ġreach": 5249,
      "Ġherself": 5250,
      "Ġopin": 5251,
      "Ġdescription": 5252,
      "Ġnotice": 5253,
      "94": 5254,
      "DR": 5255,
      "ĠRepublic": 5256,
      "prot": 5257,
      "Ġsto": 5258,
      "Ġforms": 5259,
      "cp": 5260,
      "ederal": 5261,
      "Ġparents": 5262,
      "duc": 5263,
      "Ġmanufact": 5264,
      "arden": 5265,
      "ĠLong": 5266,
      "sych": 5267,
      "Operation": 5268,
      "exception": 5269,
      "Ġcold": 5270,
      "ĠDuring": 5271,
      "Ġtro": 5272,
      "Ġcorrespon": 5273,
      "PC": 5274,
      "anted": 5275,
      "rees": 5276,
      "/**": 5277,
      "Ġexisting": 5278,
      "Ġconstruction": 5279,
      "Ġslight": 5280,
      "po": 5281,
      "Ġproced": 5282,
      "Ġstudent": 5283,
      "bool": 5284,
      "ĠClass": 5285,
      "di": 5286,
      "Ġplease": 5287,
      "ports": 5288,
      "Ġrat": 5289,
      "TS": 5290,
      "Ġrail": 5291,
      "Ġparticularly": 5292,
      "Runtime": 5293,
      "inese": 5294,
      "æķ°": 5295,
      "btn": 5296,
      "ĠCenter": 5297,
      "Ġmode": 5298,
      "term": 5299,
      "Ġdemand": 5300,
      "Find": 5301,
      "Ġsudden": 5302,
      "Ġcouple": 5303,
      "dated": 5304,
      "player": 5305,
      "Ġscript": 5306,
      "ĠUpdate": 5307,
      "Ġpatient": 5308,
      "Ġdut": 5309,
      "Ġincreasing": 5310,
      "UB": 5311,
      "Ġexhib": 5312,
      "Ġreference": 5313,
      "Ġallows": 5314,
      "ĠLet": 5315,
      "Top": 5316,
      "UD": 5317,
      "Ġtransform": 5318,
      "assert": 5319,
      "ĠJew": 5320,
      "ĠCheck": 5321,
      "ashington": 5322,
      "Ġroll": 5323,
      "WORD": 5324,
      "ĠHen": 5325,
      "Ġnovel": 5326,
      "how": 5327,
      "Ġtrade": 5328,
      "Ġmur": 5329,
      "Directory": 5330,
      "ĠLaw": 5331,
      "Ġimmediately": 5332,
      "Change": 5333,
      "essor": 5334,
      "acing": 5335,
      "olve": 5336,
      "ĠMem": 5337,
      "nce": 5338,
      "abs": 5339,
      "Main": 5340,
      "Ġfresh": 5341,
      "Properties": 5342,
      "Ġign": 5343,
      "Ġscene": 5344,
      "ifest": 5345,
      "ocket": 5346,
      "ĠRober": 5347,
      "\",\"": 5348,
      "ĠAustralia": 5349,
      "Ġpartial": 5350,
      "ĠCanada": 5351,
      "ocker": 5352,
      "Ġaltern": 5353,
      "Cache": 5354,
      "msg": 5355,
      "MM": 5356,
      "Ġpiece": 5357,
      "Ġremained": 5358,
      "Ġnav": 5359,
      "ĠRef": 5360,
      "Pass": 5361,
      "æĹ": 5362,
      "Display": 5363,
      "à¸": 5364,
      "Ġbirth": 5365,
      "Ġwor": 5366,
      "Ġlimited": 5367,
      "itiz": 5368,
      "']": 5369,
      "nes": 5370,
      "Ġadvant": 5371,
      "ncy": 5372,
      "Scal": 5373,
      "Ġbelong": 5374,
      "eal": 5375,
      "ĠUK": 5376,
      "yles": 5377,
      "Ġcat": 5378,
      "Ġcool": 5379,
      "args": 5380,
      "Ġcelebr": 5381,
      "Ġinteresting": 5382,
      "Ġargs": 5383,
      "alpha": 5384,
      "Ġprotect": 5385,
      "ĠMad": 5386,
      "Ġjava": 5387,
      "Models": 5388,
      "elled": 5389,
      "TY": 5390,
      "AGE": 5391,
      "ho": 5392,
      "Mat": 5393,
      "ambda": 5394,
      "ĠDavid": 5395,
      "Ġdream": 5396,
      "%\",": 5397,
      "ĠRoman": 5398,
      "Ġemb": 5399,
      "Ġpolice": 5400,
      "Ġorganization": 5401,
      "Diagnost": 5402,
      "ooth": 5403,
      "å¼": 5404,
      "space": 5405,
      "Ġcharacters": 5406,
      "54": 5407,
      "Ġepis": 5408,
      "Ġheavy": 5409,
      "kin": 5410,
      "ĠLou": 5411,
      "================================": 5412,
      "urance": 5413,
      "Ġhy": 5414,
      "Ġfaith": 5415,
      "Ġ2000": 5416,
      "ĠMal": 5417,
      "iny": 5418,
      "ĠHall": 5419,
      "Co": 5420,
      "Module": 5421,
      "oundation": 5422,
      "Ġcentral": 5423,
      "Ġtrain": 5424,
      "ëĭ": 5425,
      "float": 5426,
      "ĠBro": 5427,
      "ITY": 5428,
      "Ġmeaning": 5429,
      "Ñĭ": 5430,
      "Ġrank": 5431,
      "Ġsituation": 5432,
      "Ġoccasion": 5433,
      "Ġeveryone": 5434,
      "PO": 5435,
      "ellig": 5436,
      "Ġsurround": 5437,
      "Ġyield": 5438,
      "oes": 5439,
      "service": 5440,
      "Ġreli": 5441,
      "ãĥ¼": 5442,
      "GET": 5443,
      "Ġcomfort": 5444,
      "Then": 5445,
      "fast": 5446,
      "while": 5447,
      "ĠDay": 5448,
      "Ġcaused": 5449,
      "ĠCalifornia": 5450,
      "Ġstrength": 5451,
      "ĠStart": 5452,
      "Var": 5453,
      "Delete": 5454,
      "ĠFil": 5455,
      "Ġstarting": 5456,
      "Ġdoc": 5457,
      "arc": 5458,
      "atur": 5459,
      "Ġfailed": 5460,
      "array": 5461,
      "ette": 5462,
      "Ġskin": 5463,
      "Ġlarger": 5464,
      "Ġcollect": 5465,
      "oto": 5466,
      "Ġfirm": 5467,
      "Ġoffers": 5468,
      "Ġwat": 5469,
      "Ġregister": 5470,
      "force": 5471,
      "Ġdu": 5472,
      "Ġvariety": 5473,
      "za": 5474,
      "Ġdrink": 5475,
      "ĠJe": 5476,
      "Ġexperiment": 5477,
      "have": 5478,
      "Ġbeg": 5479,
      "ulate": 5480,
      "Enum": 5481,
      "Ġoperations": 5482,
      "Ġfully": 5483,
      "Ġdrive": 5484,
      "Ġclosed": 5485,
      "fun": 5486,
      "Ġsociety": 5487,
      "Editor": 5488,
      "Ġfeeling": 5489,
      "Document": 5490,
      "Ġsets": 5491,
      "typeof": 5492,
      "Ġarchitect": 5493,
      "Ġlov": 5494,
      ".*": 5495,
      "ĠMet": 5496,
      "block": 5497,
      "Ġindeed": 5498,
      "Non": 5499,
      "Ġ[\"": 5500,
      "ĠCong": 5501,
      "DS": 5502,
      "ĠAtt": 5503,
      "53": 5504,
      "Title": 5505,
      "Right": 5506,
      "ĠMethod": 5507,
      "IF": 5508,
      "Ġchalleng": 5509,
      "Ġprojects": 5510,
      "Enabled": 5511,
      "Ġschools": 5512,
      "echn": 5513,
      "Vari": 5514,
      "ĠHel": 5515,
      "93": 5516,
      "Selected": 5517,
      "Ġec": 5518,
      "Ġspecified": 5519,
      "ĠCompany": 5520,
      "Ġthreat": 5521,
      "Ġestablish": 5522,
      "ĠMac": 5523,
      "Ġpressure": 5524,
      "Ġframe": 5525,
      "Ġcandid": 5526,
      "Remove": 5527,
      "Ġscale": 5528,
      "otes": 5529,
      "idents": 5530,
      "ĠCO": 5531,
      "Ġio": 5532,
      "Ġshot": 5533,
      "Ġrules": 5534,
      "game": 5535,
      "Ġearlier": 5536,
      "Ġuseful": 5537,
      "Oh": 5538,
      "aste": 5539,
      "ĠDepartment": 5540,
      "icks": 5541,
      "Ġscient": 5542,
      "Ġlived": 5543,
      "Ġlooks": 5544,
      "Me": 5545,
      "iders": 5546,
      "icated": 5547,
      "Ġswitch": 5548,
      "ingu": 5549,
      "Ġchoice": 5550,
      "Ġquery": 5551,
      "Ġobtain": 5552,
      "Ġtoward": 5553,
      "Ġprefer": 5554,
      "åĽ": 5555,
      "bert": 5556,
      "ĠAny": 5557,
      "Ġprison": 5558,
      "ignment": 5559,
      "Values": 5560,
      "urb": 5561,
      "ĠJer": 5562,
      "Ġcharg": 5563,
      "ĠWindows": 5564,
      "ĠOther": 5565,
      "Bo": 5566,
      "Ġsetting": 5567,
      "ĠVis": 5568,
      "Panel": 5569,
      "ĠKey": 5570,
      "they": 5571,
      "ructure": 5572,
      "Handle": 5573,
      "Ġapplied": 5574,
      "IB": 5575,
      "Template": 5576,
      "ste": 5577,
      "olly": 5578,
      "Ġfarm": 5579,
      "usiness": 5580,
      "Ġlegal": 5581,
      "Parent": 5582,
      "ĠTom": 5583,
      "Ġ80": 5584,
      "rian": 5585,
      "Ġdefe": 5586,
      "uman": 5587,
      "Ġstock": 5588,
      "ãĢģ": 5589,
      "Ġteams": 5590,
      "Ġff": 5591,
      "Ġinterview": 5592,
      ".--": 5593,
      "Ġapply": 5594,
      "ĠMont": 5595,
      "Hash": 5596,
      "cr": 5597,
      "Ġbackground": 5598,
      "lem": 5599,
      "Ġempty": 5600,
      "ifying": 5601,
      "Ġlatter": 5602,
      "Ġthinking": 5603,
      "ĠCr": 5604,
      "Ġult": 5605,
      "ĠDistrict": 5606,
      "['": 5607,
      "Ġscience": 5608,
      "ĠDictionary": 5609,
      "92": 5610,
      "Ġaccur": 5611,
      "Ġmist": 5612,
      "Ġpal": 5613,
      "Ġfields": 5614,
      "Ġconcent": 5615,
      "Ġexerc": 5616,
      "57": 5617,
      "fin": 5618,
      "Ġcru": 5619,
      "Ġhighest": 5620,
      "Ġchannel": 5621,
      "ĠFalse": 5622,
      "Ġfilter": 5623,
      "author": 5624,
      "Ġimages": 5625,
      "iced": 5626,
      "Ġwarm": 5627,
      "isher": 5628,
      "Ġchem": 5629,
      "olved": 5630,
      "child": 5631,
      "install": 5632,
      "isation": 5633,
      "Ġeconomic": 5634,
      ",\\": 5635,
      "Ġcompletely": 5636,
      "ĠPublic": 5637,
      "Option": 5638,
      "ĠBase": 5639,
      "Ġsigned": 5640,
      "Ġdirector": 5641,
      "vm": 5642,
      "Ġtransport": 5643,
      "enter": 5644,
      "write": 5645,
      "Ġtheory": 5646,
      "Tests": 5647,
      "æī": 5648,
      "ĠSte": 5649,
      ")\\": 5650,
      "ĠRun": 5651,
      "éĢ": 5652,
      "Ġnation": 5653,
      "Ġemail": 5654,
      "Ġkilled": 5655,
      "Ġsupported": 5656,
      "Db": 5657,
      "Ġfigure": 5658,
      "ronic": 5659,
      "58": 5660,
      "inger": 5661,
      "Ġevening": 5662,
      "ĠAPI": 5663,
      "Ġentity": 5664,
      "clusion": 5665,
      "ĠTV": 5666,
      "afe": 5667,
      "Ġbattle": 5668,
      "ĠNav": 5669,
      "SION": 5670,
      "xml": 5671,
      "Ġpaid": 5672,
      "Ġremains": 5673,
      "Ġideas": 5674,
      "ruit": 5675,
      "strong": 5676,
      "pan": 5677,
      "ida": 5678,
      "ria": 5679,
      "Ġfunctions": 5680,
      "Ġensure": 5681,
      "}/": 5682,
      "Ġapprox": 5683,
      "Ġbird": 5684,
      "Ġsender": 5685,
      "Ġwest": 5686,
      "Ġbottom": 5687,
      "ä¹": 5688,
      "there": 5689,
      "Ġgas": 5690,
      "Ġpark": 5691,
      "Render": 5692,
      "inn": 5693,
      "OC": 5694,
      "ĠUnion": 5695,
      "Ġchoose": 5696,
      "ĠNor": 5697,
      "note": 5698,
      "Category": 5699,
      "ĠEnt": 5700,
      "oma": 5701,
      "leted": 5702,
      "vents": 5703,
      "ini": 5704,
      "ya": 5705,
      "endif": 5706,
      "SH": 5707,
      "Ġrender": 5708,
      "ceived": 5709,
      "gorithm": 5710,
      "Ġequal": 5711,
      "ĠWashington": 5712,
      "mathcal": 5713,
      "eces": 5714,
      "Ġspring": 5715,
      "ears": 5716,
      "Ġencour": 5717,
      "Ġran": 5718,
      "Ġsch": 5719,
      "process": 5720,
      "Single": 5721,
      "Ge": 5722,
      "ĠYour": 5723,
      "expected": 5724,
      "Ġtraditional": 5725,
      "ĠAssociation": 5726,
      "dk": 5727,
      "amily": 5728,
      "Ġ>=": 5729,
      "ĠSam": 5730,
      "Ġcalcul": 5731,
      "Dir": 5732,
      "eds": 5733,
      "Ġmachine": 5734,
      "ĠCup": 5735,
      "Ġraised": 5736,
      "Ġprograms": 5737,
      "rary": 5738,
      "Ġforeign": 5739,
      "ĠCall": 5740,
      "ki": 5741,
      "Ġentered": 5742,
      "Inst": 5743,
      "Ġserve": 5744,
      "Well": 5745,
      "atever": 5746,
      "Ġsafe": 5747,
      "Where": 5748,
      "ĠCommun": 5749,
      "status": 5750,
      "ĠMart": 5751,
      "ĠGermany": 5752,
      "Ġfloor": 5753,
      "Ġlargest": 5754,
      "Body": 5755,
      "hav": 5756,
      "Ġsen": 5757,
      "Ġrecorded": 5758,
      "Ġspread": 5759,
      "si": 5760,
      "ester": 5761,
      "cles": 5762,
      "Ġmoving": 5763,
      "Ġstraight": 5764,
      "para": 5765,
      "Ġexcell": 5766,
      "Ġcomputer": 5767,
      "Ġpicture": 5768,
      "Fragment": 5769,
      "Ġfamilies": 5770,
      "Ġobjects": 5771,
      "criptor": 5772,
      "~~": 5773,
      ")$": 5774,
      "ĠChe": 5775,
      "ĠSpec": 5776,
      "ader": 5777,
      "Ġdanger": 5778,
      "Ġdaily": 5779,
      "Ġbasis": 5780,
      "Ġq": 5781,
      "Go": 5782,
      "Ã£": 5783,
      "UP": 5784,
      "Ġagreed": 5785,
      "Ġsell": 5786,
      "gest": 5787,
      "Ġdestroy": 5788,
      "reated": 5789,
      "Ġremove": 5790,
      "length": 5791,
      "Str": 5792,
      "Mr": 5793,
      "zen": 5794,
      "./": 5795,
      "Utils": 5796,
      "Ġdistribution": 5797,
      "Ġindividuals": 5798,
      "etch": 5799,
      "Auto": 5800,
      "Ġhorse": 5801,
      "kotlin": 5802,
      "ĠSim": 5803,
      "Ġachieve": 5804,
      "Ġsomew": 5805,
      "ĠChinese": 5806,
      "Search": 5807,
      "Ġ2005": 5808,
      "OW": 5809,
      "verter": 5810,
      "Ġalt": 5811,
      "amma": 5812,
      "Ġpreviously": 5813,
      "format": 5814,
      "ensed": 5815,
      "ĠKe": 5816,
      "ba": 5817,
      "ĠProject": 5818,
      "ä¸ª": 5819,
      "igration": 5820,
      "atin": 5821,
      "Ġpackage": 5822,
      "ooks": 5823,
      "Ġforces": 5824,
      "********************************": 5825,
      "xx": 5826,
      "appe": 5827,
      "adow": 5828,
      "Ġreader": 5829,
      "\"\"": 5830,
      "Cor": 5831,
      "Ġotherwise": 5832,
      "Ġfellow": 5833,
      "Ġdecre": 5834,
      "Ġrandom": 5835,
      "det": 5836,
      "Ġoffered": 5837,
      "Ġappears": 5838,
      "ĠâĨ": 5839,
      "52": 5840,
      "lig": 5841,
      "option": 5842,
      "Ġlock": 5843,
      "Ġeast": 5844,
      "Ġhandle": 5845,
      "Ġproduce": 5846,
      "ftware": 5847,
      "web": 5848,
      "ĠProv": 5849,
      "Account": 5850,
      "rael": 5851,
      "ĠPre": 5852,
      "ĠBen": 5853,
      "spect": 5854,
      "liament": 5855,
      "Ġ})": 5856,
      "equation": 5857,
      "';": 5858,
      "ounded": 5859,
      "Ġscore": 5860,
      "ÐµÐ": 5861,
      "Ġeffort": 5862,
      "Ġapplications": 5863,
      "show": 5864,
      "then": 5865,
      "Ġopening": 5866,
      "rapy": 5867,
      "master": 5868,
      "Ġtests": 5869,
      "91": 5870,
      "åį": 5871,
      "Ġarmy": 5872,
      "Ġlibrary": 5873,
      "Contains": 5874,
      "Ġproceed": 5875,
      "Ġded": 5876,
      "ĠCons": 5877,
      "Ġarms": 5878,
      "omy": 5879,
      "ustration": 5880,
      "Ġax": 5881,
      "tn": 5882,
      "dist": 5883,
      "Ġprem": 5884,
      "Ġnob": 5885,
      "eps": 5886,
      "Ġsession": 5887,
      "enes": 5888,
      "LL": 5889,
      "Ġaspect": 5890,
      "ĠParty": 5891,
      "Ġbrand": 5892,
      "Ġheat": 5893,
      "Ġcancer": 5894,
      "vant": 5895,
      "ĠMo": 5896,
      "Ġcertainly": 5897,
      "Ġcollege": 5898,
      "Ġwid": 5899,
      "Ke": 5900,
      "API": 5901,
      "Ġ/*": 5902,
      "TP": 5903,
      "Ġsettings": 5904,
      "Ġintroduced": 5905,
      "Ġpi": 5906,
      "eless": 5907,
      "car": 5908,
      "Store": 5909,
      "Ġkotlin": 5910,
      "ĠDev": 5911,
      "Ġtrip": 5912,
      "Ġê": 5913,
      "Ġrapid": 5914,
      "Ġstrugg": 5915,
      "chen": 5916,
      "icket": 5917,
      "azing": 5918,
      "Ġgrowing": 5919,
      "CS": 5920,
      "CR": 5921,
      "ĠGovernment": 5922,
      "Ġcovered": 5923,
      "azon": 5924,
      "Ġtwenty": 5925,
      "ashion": 5926,
      "Ġabsol": 5927,
      "Ġplans": 5928,
      "ĠJes": 5929,
      ":\\": 5930,
      "Ġnone": 5931,
      "Initial": 5932,
      "Ġsafety": 5933,
      "icted": 5934,
      "apers": 5935,
      "Ġrich": 5936,
      "Ġfactors": 5937,
      "Ġunderstanding": 5938,
      "ĠPost": 5939,
      "ĠDef": 5940,
      "void": 5941,
      "Stat": 5942,
      "IES": 5943,
      "ĠUnity": 5944,
      "orter": 5945,
      "ĠParis": 5946,
      "method": 5947,
      "len": 5948,
      "ĠTur": 5949,
      "Ġestim": 5950,
      "------------": 5951,
      "style": 5952,
      "Ġappearance": 5953,
      "ĠHealth": 5954,
      "pret": 5955,
      "van": 5956,
      "ancing": 5957,
      "åľ¨": 5958,
      "ĠChampionship": 5959,
      ">.": 5960,
      "iments": 5961,
      "argin": 5962,
      "Ġtoken": 5963,
      "Ġdra": 5964,
      "Ġshape": 5965,
      "Ġcop": 5966,
      "ĠWhite": 5967,
      "Ġindependent": 5968,
      "Ġgets": 5969,
      "Ġcrow": 5970,
      "anned": 5971,
      "ipment": 5972,
      "Pol": 5973,
      "Ã£o": 5974,
      ",-": 5975,
      "aby": 5976,
      "Ġsteps": 5977,
      "(-": 5978,
      "Mult": 5979,
      "ĠReturn": 5980,
      "Diagnostics": 5981,
      "Fe": 5982,
      "Ġsolid": 5983,
      "SON": 5984,
      "ora": 5985,
      "ĠAzure": 5986,
      "rt": 5987,
      "Ġbow": 5988,
      "AND": 5989,
      "////////////////": 5990,
      "Ġmeant": 5991,
      "Ġnet": 5992,
      "Cell": 5993,
      "Ġmaterials": 5994,
      "aped": 5995,
      "Save": 5996,
      "ien": 5997,
      "={": 5998,
      "udd": 5999,
      "quis": 6000,
      "ACK": 6001,
      "IX": 6002,
      "Ġmovie": 6003,
      "ala": 6004,
      "EventArgs": 6005,
      "Ġdetermined": 6006,
      "ĠDE": 6007,
      "num": 6008,
      "iated": 6009,
      "ĠMost": 6010,
      "uke": 6011,
      "ĠArch": 6012,
      "Ġspot": 6013,
      "ORT": 6014,
      "ĠOh": 6015,
      "ertific": 6016,
      "ART": 6017,
      "Ġpow": 6018,
      "Ġcounter": 6019,
      "och": 6020,
      "Sl": 6021,
      "Enc": 6022,
      "root": 6023,
      "ĠMessage": 6024,
      "Ġhappened": 6025,
      "inder": 6026,
      "ĠDirect": 6027,
      "Ġwasn": 6028,
      "Ġanyone": 6029,
      "Callback": 6030,
      "DateTime": 6031,
      "Ġstories": 6032,
      "MenuItem": 6033,
      "ARR": 6034,
      "output": 6035,
      "Ġinstr": 6036,
      "Ġfemale": 6037,
      "Ġadapt": 6038,
      "Ġglass": 6039,
      "Ġrout": 6040,
      "mem": 6041,
      "Ġmanager": 6042,
      "Ġburn": 6043,
      "Ġtools": 6044,
      "Ġclick": 6045,
      "ĠBay": 6046,
      "Ġeat": 6047,
      "Ġrob": 6048,
      "fit": 6049,
      "Ġdebut": 6050,
      "ourney": 6051,
      "Ġappropri": 6052,
      "ilk": 6053,
      "ĠEnd": 6054,
      "Ġnative": 6055,
      "Ġsuc": 6056,
      "Ġcustomers": 6057,
      "Ġrecommend": 6058,
      "Ġcomponent": 6059,
      "Argument": 6060,
      "Ġpair": 6061,
      "izations": 6062,
      "Ġdear": 6063,
      "before": 6064,
      "ĠSince": 6065,
      "Ġdry": 6066,
      "ĠDel": 6067,
      "Ġappointed": 6068,
      "ults": 6069,
      "ĠVer": 6070,
      "ĠTw": 6071,
      "Ġconfiguration": 6072,
      "Ġoverall": 6073,
      "ĠVir": 6074,
      "Ġfixed": 6075,
      "Ġthr": 6076,
      "Ġnom": 6077,
      "olf": 6078,
      "Register": 6079,
      "ĠMex": 6080,
      "ga": 6081,
      "oral": 6082,
      "Ġremoved": 6083,
      "query": 6084,
      "Cal": 6085,
      "estival": 6086,
      "ĠGreen": 6087,
      "ĠInc": 6088,
      "Ġleaving": 6089,
      "Ġdatabase": 6090,
      "Ag": 6091,
      "Common": 6092,
      "alian": 6093,
      "utable": 6094,
      "}(": 6095,
      "ĠAction": 6096,
      "}_": 6097,
      "ĠSum": 6098,
      "Params": 6099,
      "ydro": 6100,
      "Ġtrees": 6101,
      "ĠAlthough": 6102,
      "Ġrare": 6103,
      "51": 6104,
      "Ġcoast": 6105,
      "Bit": 6106,
      "Ġpurs": 6107,
      "Ġgentle": 6108,
      "exp": 6109,
      "ĠAfrica": 6110,
      "Ġaware": 6111,
      "Ġbes": 6112,
      "asp": 6113,
      "Ġvolume": 6114,
      "Ġbehavior": 6115,
      "next": 6116,
      "berg": 6117,
      "jo": 6118,
      "mt": 6119,
      "ĠRobert": 6120,
      "Ġbul": 6121,
      "Ġyouth": 6122,
      "Ġtag": 6123,
      "ĠAre": 6124,
      "ĠOver": 6125,
      "Impl": 6126,
      "Ġcircum": 6127,
      "Ġsweet": 6128,
      "mir": 6129,
      "should": 6130,
      "Ġreplace": 6131,
      "Ġreturns": 6132,
      "search": 6133,
      "Ġanti": 6134,
      "ĠProgram": 6135,
      "ĠObject": 6136,
      "Ġ]": 6137,
      "Sql": 6138,
      "teen": 6139,
      "ĠIsland": 6140,
      "docs": 6141,
      "Ġdetermine": 6142,
      "Ġwit": 6143,
      "Binding": 6144,
      "Ġexpand": 6145,
      "rav": 6146,
      "Active": 6147,
      "Ġreb": 6148,
      "response": 6149,
      "rie": 6150,
      "Ġolder": 6151,
      "Ġjoin": 6152,
      "Ġcommercial": 6153,
      "ses": 6154,
      "Ġconvers": 6155,
      "ribe": 6156,
      "Ġnice": 6157,
      "enth": 6158,
      "ĠArmy": 6159,
      "ĠMag": 6160,
      "home": 6161,
      "Ġremark": 6162,
      "ĠConfig": 6163,
      "illa": 6164,
      "itors": 6165,
      "vc": 6166,
      "Ġsubsequ": 6167,
      "Byte": 6168,
      "Ġ2004": 6169,
      "ĠUnit": 6170,
      "vas": 6171,
      "lict": 6172,
      "Ġuint": 6173,
      "Product": 6174,
      "Ġstreet": 6175,
      "Ġmission": 6176,
      "PATH": 6177,
      "Ġsongs": 6178,
      "wide": 6179,
      "Ġformula": 6180,
      "Red": 6181,
      "Ġsoul": 6182,
      "Ġforest": 6183,
      "othes": 6184,
      "ĠOper": 6185,
      "pol": 6186,
      "Ġisland": 6187,
      "ĠEven": 6188,
      "Ġphil": 6189,
      "INT": 6190,
      "Ġconsequ": 6191,
      "Ġoffset": 6192,
      "velopment": 6193,
      "Ġtemperature": 6194,
      "Ġquarter": 6195,
      "Ġvert": 6196,
      "Ġcloud": 6197,
      "were": 6198,
      "Sw": 6199,
      ")))": 6200,
      "Ġauth": 6201,
      "ĠVol": 6202,
      "Ġruns": 6203,
      "ushed": 6204,
      "Ġpriv": 6205,
      "Ġlearned": 6206,
      "Ġfol": 6207,
      "tered": 6208,
      "ections": 6209,
      "Ġmentioned": 6210,
      "fs": 6211,
      "ota": 6212,
      "ĠVersion": 6213,
      "dule": 6214,
      "Ġstatement": 6215,
      "ĠSociety": 6216,
      "({": 6217,
      "Bytes": 6218,
      "Ġlib": 6219,
      "Ġlabor": 6220,
      "OK": 6221,
      "Ġexactly": 6222,
      "osen": 6223,
      "Ġadopt": 6224,
      "ĠMount": 6225,
      "number": 6226,
      "rb": 6227,
      "static": 6228,
      "Ġdram": 6229,
      "ona": 6230,
      "ursor": 6231,
      "hy": 6232,
      "Ġsac": 6233,
      "rier": 6234,
      "Framework": 6235,
      "Device": 6236,
      "Ġchair": 6237,
      "Ã³n": 6238,
      "Flags": 6239,
      "lets": 6240,
      "ĠTwo": 6241,
      "edy": 6242,
      "Icon": 6243,
      "ĠSund": 6244,
      "å¾": 6245,
      "odies": 6246,
      "Ġtelev": 6247,
      "ĠWell": 6248,
      "ME": 6249,
      "git": 6250,
      "adding": 6251,
      "Database": 6252,
      "Ġsignificantly": 6253,
      "ĠRoad": 6254,
      "Ġclasses": 6255,
      "!âĢĿ": 6256,
      "Let": 6257,
      "Ġlicense": 6258,
      "Ġinfo": 6259,
      "Port": 6260,
      "LD": 6261,
      "Sign": 6262,
      "Imp": 6263,
      "rolled": 6264,
      "Kind": 6265,
      "ĠWIT": 6266,
      "scious": 6267,
      "oured": 6268,
      "alysis": 6269,
      "Ġedge": 6270,
      "Ġshoot": 6271,
      "ĠIts": 6272,
      "Scope": 6273,
      "Ġdamage": 6274,
      "Host": 6275,
      "Ġfle": 6276,
      "ano": 6277,
      "ĠSal": 6278,
      "CA": 6279,
      "ĠThomas": 6280,
      "Ġ<=": 6281,
      "Tree": 6282,
      "Const": 6283,
      "Ġradio": 6284,
      "irty": 6285,
      "rant": 6286,
      "ishes": 6287,
      "?)": 6288,
      "ĠAlex": 6289,
      "Ġthick": 6290,
      "ĠCharles": 6291,
      "iques": 6292,
      "fra": 6293,
      "ĠMany": 6294,
      "Ġpet": 6295,
      "Ġrot": 6296,
      "Ġquiet": 6297,
      "essed": 6298,
      "Ġcritical": 6299,
      "Ġcontain": 6300,
      "iency": 6301,
      "Ver": 6302,
      "Ġhelped": 6303,
      "location": 6304,
      "address": 6305,
      "Ġsucceed": 6306,
      "Ġphone": 6307,
      "ems": 6308,
      "Ġreligious": 6309,
      "Ġfounded": 6310,
      "Rect": 6311,
      "Ġdigital": 6312,
      "Ġleader": 6313,
      "Ġren": 6314,
      "Ġcancell": 6315,
      "Ġattract": 6316,
      "Ġsight": 6317,
      "Mark": 6318,
      "example": 6319,
      "Ġeditor": 6320,
      "ixture": 6321,
      "Ġsales": 6322,
      "Ġsymbol": 6323,
      "Po": 6324,
      "ĠGoogle": 6325,
      "}^": 6326,
      "Ġnumerous": 6327,
      "ato": 6328,
      "Ġupper": 6329,
      "Ġselection": 6330,
      "SI": 6331,
      "Ġincor": 6332,
      "Ġroute": 6333,
      "ĠRoyal": 6334,
      "Root": 6335,
      "chers": 6336,
      "atically": 6337,
      "ACT": 6338,
      "Ġvisual": 6339,
      "ĠĠĠĠĠĠĠĠĠĠĠĠĠĠĠĠĠĠĠĠĠĠĠĠĠĠĠĠĠĠĠĠĠĠĠĠĠĠĠ": 6340,
      "Ġenemy": 6341,
      "Ġblog": 6342,
      "Br": 6343,
      "ĠIsrael": 6344,
      "ĠProf": 6345,
      "Ġ54": 6346,
      "Ġbecomes": 6347,
      "ĠRel": 6348,
      "Ġenh": 6349,
      "ĠConn": 6350,
      "ician": 6351,
      "when": 6352,
      "licit": 6353,
      "ĠTheir": 6354,
      "ĠValue": 6355,
      "SO": 6356,
      "west": 6357,
      "Ġhuge": 6358,
      "typ": 6359,
      "isters": 6360,
      "Track": 6361,
      "lines": 6362,
      "500": 6363,
      "Ġarrived": 6364,
      "ÑĮ": 6365,
      "Ġunf": 6366,
      "aming": 6367,
      "iform": 6368,
      "Ġskills": 6369,
      "oration": 6370,
      "STR": 6371,
      "Ġsister": 6372,
      "their": 6373,
      "ĠÐ¿": 6374,
      "ä¸Ń": 6375,
      "ĠĠĠĠĠĠĠĠĠĠĠĠĊ": 6376,
      "even": 6377,
      "Ġtit": 6378,
      "ĠPoint": 6379,
      "Ġfactor": 6380,
      "EXT": 6381,
      "Ġtransl": 6382,
      "ĠMax": 6383,
      "Ġefforts": 6384,
      "Ġpsych": 6385,
      "å¯": 6386,
      "ancis": 6387,
      "Ġseparate": 6388,
      "Ġcreating": 6389,
      "Don": 6390,
      "Ġstudied": 6391,
      "Extensions": 6392,
      "internal": 6393,
      "Ġmajority": 6394,
      "Ġ90": 6395,
      "uing": 6396,
      "Ġbrain": 6397,
      "($\"": 6398,
      "ĠEvery": 6399,
      "Ġproviding": 6400,
      "yntax": 6401,
      "ĠCam": 6402,
      "Ġstated": 6403,
      "Ġmodule": 6404,
      "IsNull": 6405,
      "\"));": 6406,
      "ĠSuper": 6407,
      "ĠUse": 6408,
      "ested": 6409,
      "Ġsources": 6410,
      "ĠCath": 6411,
      "CMakeFiles": 6412,
      "~\\": 6413,
      "Ġbright": 6414,
      "};": 6415,
      "stances": 6416,
      "Ġgoals": 6417,
      "ponents": 6418,
      "ishop": 6419,
      "ĠRob": 6420,
      "Asp": 6421,
      "Ġbinding": 6422,
      "ancel": 6423,
      "ĠModel": 6424,
      "Ġconvert": 6425,
      "),%": 6426,
      "åĩ": 6427,
      "notation": 6428,
      "standing": 6429,
      "Ġbasic": 6430,
      "burg": 6431,
      "Ġdepart": 6432,
      "Ġended": 6433,
      "Ġleaves": 6434,
      "Ġopinion": 6435,
      "aught": 6436,
      "ĠANY": 6437,
      "ĠâĶ": 6438,
      "agon": 6439,
      "who": 6440,
      "Ġdat": 6441,
      "ĠCode": 6442,
      "Ġcomponents": 6443,
      "Ġimplementation": 6444,
      "Ġattend": 6445,
      "itar": 6446,
      "Ġfollows": 6447,
      "ye": 6448,
      "coming": 6449,
      "ĠAcad": 6450,
      "Ġgraph": 6451,
      "ena": 6452,
      "duction": 6453,
      "filter": 6454,
      "ĠNOT": 6455,
      "Ġstorage": 6456,
      "ker": 6457,
      "Ġcoach": 6458,
      "ASS": 6459,
      "bur": 6460,
      "æľī": 6461,
      "chor": 6462,
      "update": 6463,
      "icensed": 6464,
      "ynch": 6465,
      "Ġvan": 6466,
      "Ġanimals": 6467,
      "nel": 6468,
      "Ġreduced": 6469,
      "ĠInstitute": 6470,
      "igma": 6471,
      "Ġlab": 6472,
      "Ill": 6473,
      "ĠHenry": 6474,
      "Que": 6475,
      "Ġrespectively": 6476,
      "Ġartist": 6477,
      "Ġpersons": 6478,
      "mk": 6479,
      "ĠPeter": 6480,
      "ĠMer": 6481,
      "ĠFrank": 6482,
      "Ġcitiz": 6483,
      "Ġye": 6484,
      "Ġhyp": 6485,
      "shire": 6486,
      "Ġconnected": 6487,
      "åĨ": 6488,
      "eger": 6489,
      "Ġsites": 6490,
      "ĠGold": 6491,
      "Ġtelevision": 6492,
      "Ġfamous": 6493,
      "ABLE": 6494,
      "Ġcapacity": 6495,
      "Ġbrief": 6496,
      "osite": 6497,
      "Ġrestr": 6498,
      "asy": 6499,
      "ĠCentral": 6500,
      "refix": 6501,
      "Ġbuffer": 6502,
      "han": 6503,
      "break": 6504,
      "description": 6505,
      "Ġhospital": 6506,
      "Span": 6507,
      "azine": 6508,
      "Ġcompetition": 6509,
      "Ġthousand": 6510,
      "\"},": 6511,
      "ĠGets": 6512,
      "Ġthy": 6513,
      "ä¸į": 6514,
      "Ġmill": 6515,
      "Ġshared": 6516,
      "Ġeventually": 6517,
      "lam": 6518,
      "ĠHand": 6519,
      "ĠAlso": 6520,
      "Session": 6521,
      "Ġeth": 6522,
      "Ġargument": 6523,
      "Ġfourth": 6524,
      "ella": 6525,
      "Ġreduce": 6526,
      "Ġloved": 6527,
      "GL": 6528,
      "Ġforg": 6529,
      "ĠWestern": 6530,
      "ĠSmith": 6531,
      "Ġcustomer": 6532,
      "tab": 6533,
      "transform": 6534,
      "Ġabstract": 6535,
      "ossible": 6536,
      "Writer": 6537,
      "asm": 6538,
      "Names": 6539,
      "double": 6540,
      "iour": 6541,
      "Ġsmaller": 6542,
      "Ġrequires": 6543,
      "Ġimportance": 6544,
      "Ġ2003": 6545,
      "antly": 6546,
      "Ġelected": 6547,
      "Ġstuff": 6548,
      "faces": 6549,
      "QU": 6550,
      "EE": 6551,
      "Ġexcellent": 6552,
      "Ġinterested": 6553,
      "Ġcosts": 6554,
      "ĠArgument": 6555,
      "ĠAD": 6556,
      "Ġresponsible": 6557,
      "![": 6558,
      "ĠClub": 6559,
      "Ġpun": 6560,
      "edom": 6561,
      "ervation": 6562,
      "pository": 6563,
      "Ġbra": 6564,
      "apper": 6565,
      "Ġce": 6566,
      "etime": 6567,
      "system": 6568,
      "ensus": 6569,
      "wait": 6570,
      "Dep": 6571,
      "cf": 6572,
      "Ġhappen": 6573,
      "Pat": 6574,
      "agger": 6575,
      "Move": 6576,
      "Ġflag": 6577,
      "Ġbecoming": 6578,
      "ĠSk": 6579,
      "Ġfat": 6580,
      "ĠRussian": 6581,
      "inv": 6582,
      "Ġancient": 6583,
      "Ġreasons": 6584,
      "venue": 6585,
      "ĠLouis": 6586,
      "Ġwel": 6587,
      "aptain": 6588,
      "ĠMath": 6589,
      "udget": 6590,
      "Ġharm": 6591,
      "Ġdiscovered": 6592,
      "Ġlatest": 6593,
      "Te": 6594,
      "Ġbuilder": 6595,
      "ridge": 6596,
      "ĠBre": 6597,
      "ĠâĨĴ": 6598,
      "ÐµÐ½": 6599,
      "IND": 6600,
      "Ġuns": 6601,
      "uries": 6602,
      "element": 6603,
      "oses": 6604,
      "æĿ": 6605,
      "olec": 6606,
      "ĠTechn": 6607,
      "Ġpan": 6608,
      "ĠJapanese": 6609,
      "aration": 6610,
      "Ġowner": 6611,
      "conf": 6612,
      "Nav": 6613,
      "Ġmanaged": 6614,
      "Ġpowerful": 6615,
      "ĠFe": 6616,
      "command": 6617,
      "Ġgirls": 6618,
      "Ġmo": 6619,
      "lymp": 6620,
      "Ġrecords": 6621,
      "iverse": 6622,
      "Ġconsult": 6623,
      "adian": 6624,
      "Ġcollabor": 6625,
      "ĠGrand": 6626,
      "Ġcredit": 6627,
      "ĠLeg": 6628,
      "sey": 6629,
      "missions": 6630,
      "Ġunits": 6631,
      "Ġfish": 6632,
      "Ġdrop": 6633,
      "uled": 6634,
      "Sm": 6635,
      "Ġsupply": 6636,
      "AspNet": 6637,
      "ĠFore": 6638,
      "Ġweak": 6639,
      "Stack": 6640,
      "compose": 6641,
      "Ġclinical": 6642,
      "%.": 6643,
      "Ġphase": 6644,
      "');": 6645,
      "Ġadvantage": 6646,
      "exec": 6647,
      "While": 6648,
      "ĠTex": 6649,
      "ĠCH": 6650,
      "ĠRad": 6651,
      "Send": 6652,
      "Ġwinter": 6653,
      "ĠDet": 6654,
      "rowser": 6655,
      "Ġjournal": 6656,
      "ĠWhy": 6657,
      "Ġactions": 6658,
      "Ġbeat": 6659,
      "Ġvent": 6660,
      "scription": 6661,
      "ita": 6662,
      "ĠInitial": 6663,
      "Ġprepar": 6664,
      "Ġreplied": 6665,
      "otic": 6666,
      "Ins": 6667,
      "pg": 6668,
      "options": 6669,
      "Ġprepared": 6670,
      "Ġgenerated": 6671,
      "ictor": 6672,
      "Culture": 6673,
      "Domain": 6674,
      "Vert": 6675,
      "ĉĉĊ": 6676,
      "Definition": 6677,
      "raction": 6678,
      "ULT": 6679,
      "Ġanswered": 6680,
      "Ġdress": 6681,
      "roke": 6682,
      "Ġapparent": 6683,
      "nav": 6684,
      "ĠScott": 6685,
      "Ġamb": 6686,
      "inet": 6687,
      "Each": 6688,
      "Ġdistinct": 6689,
      "ione": 6690,
      "Ġsample": 6691,
      "Record": 6692,
      "Ġ52": 6693,
      "ĠĠĠĠĠĠĠĠĠĠĠĠĠĠĠĠĠĠ": 6694,
      "ĠDivision": 6695,
      "Scale": 6696,
      "Ġcentre": 6697,
      "height": 6698,
      "Ac": 6699,
      "Ġseat": 6700,
      "Ġrates": 6701,
      "ĠRE": 6702,
      "Ġcorner": 6703,
      "ToolStrip": 6704,
      "ĠAngel": 6705,
      "unicip": 6706,
      "osoph": 6707,
      "ĠOld": 6708,
      "ãģĻ": 6709,
      "Ġforth": 6710,
      "ĠAfrican": 6711,
      "Long": 6712,
      "Ġmaximum": 6713,
      "Ġurl": 6714,
      "Ġreports": 6715,
      "sv": 6716,
      "Ġsufficient": 6717,
      "ÑģÑĤ": 6718,
      "onic": 6719,
      "aud": 6720,
      "ĠUN": 6721,
      "Ġforced": 6722,
      "mu": 6723,
      ".[": 6724,
      "ĠCommission": 6725,
      "ura": 6726,
      "Ġthou": 6727,
      "ï¼ļ": 6728,
      "ĠField": 6729,
      "hetic": 6730,
      "ycle": 6731,
      "Ġboys": 6732,
      "Try": 6733,
      "Storage": 6734,
      "Ġmine": 6735,
      "Ġdirected": 6736,
      "Ġcalls": 6737,
      "Person": 6738,
      "fa": 6739,
      "Ġprotein": 6740,
      "Ġseeing": 6741,
      "Ġweather": 6742,
      "cluded": 6743,
      "Ġdevices": 6744,
      "poses": 6745,
      "Ġcritic": 6746,
      "Ġfurn": 6747,
      "Ġ<<": 6748,
      "rot": 6749,
      "hens": 6750,
      "ĠPath": 6751,
      "Ġcore": 6752,
      "asic": 6753,
      "æł": 6754,
      "greg": 6755,
      "Ġtend": 6756,
      "ĠThus": 6757,
      "ĠWrite": 6758,
      "del": 6759,
      "ĠMinister": 6760,
      "Ġiron": 6761,
      "Ġstone": 6762,
      "Rule": 6763,
      "ĠFrancis": 6764,
      "izont": 6765,
      "ĠAccording": 6766,
      "Ġmotion": 6767,
      "Ġjourney": 6768,
      "ingly": 6769,
      "Ġfilled": 6770,
      "ducation": 6771,
      "Ġannual": 6772,
      "free": 6773,
      "ä¼": 6774,
      "Background": 6775,
      "Ġstress": 6776,
      "Ġmetal": 6777,
      "Ġmouth": 6778,
      "Ġpartners": 6779,
      "Why": 6780,
      "ILD": 6781,
      "Ġsand": 6782,
      "Ġ{\"": 6783,
      "cat": 6784,
      "ĠMake": 6785,
      "Ġagree": 6786,
      "FC": 6787,
      "ĠArray": 6788,
      "rior": 6789,
      "ĠAR": 6790,
      "Ġacad": 6791,
      "ĠLin": 6792,
      "env": 6793,
      "range": 6794,
      "dw": 6795,
      "ycl": 6796,
      "Ġadvanced": 6797,
      "éĩ": 6798,
      "Step": 6799,
      "atre": 6800,
      "Ġ\"\",": 6801,
      "Ġcontainer": 6802,
      "hol": 6803,
      "ĠDec": 6804,
      "EMA": 6805,
      "iller": 6806,
      "rations": 6807,
      "igin": 6808,
      "card": 6809,
      "Channel": 6810,
      "Ġlady": 6811,
      "ĠSpanish": 6812,
      "Ġcried": 6813,
      "Ġoptim": 6814,
      "ENSE": 6815,
      "Ð²": 6816,
      "module": 6817,
      "Ġcommunication": 6818,
      "Ġri": 6819,
      "erial": 6820,
      "urrency": 6821,
      "stitution": 6822,
      "Ġrepresented": 6823,
      "ependency": 6824,
      "Serialization": 6825,
      ")}": 6826,
      "]);": 6827,
      "ji": 6828,
      "going": 6829,
      "Ġpieces": 6830,
      "Ġvariable": 6831,
      "ourse": 6832,
      "Ġmarriage": 6833,
      "Ġcontaining": 6834,
      "ãĤĴ": 6835,
      "ancellationToken": 6836,
      "nameof": 6837,
      "aml": 6838,
      "Some": 6839,
      "iginal": 6840,
      "Ġlad": 6841,
      "Ġthread": 6842,
      "ivery": 6843,
      "ĠFoundation": 6844,
      "real": 6845,
      "ĠBoard": 6846,
      "water": 6847,
      "Ġborder": 6848,
      "Ġdoll": 6849,
      "Ġminor": 6850,
      "NotNull": 6851,
      "Ġgrew": 6852,
      "Ġidentified": 6853,
      "Ġsust": 6854,
      "ja": 6855,
      "Ġnine": 6856,
      "ĠSom": 6857,
      "ĠOlymp": 6858,
      "Ġ\"<": 6859,
      "Html": 6860,
      "Ġkids": 6861,
      "VERSION": 6862,
      "property": 6863,
      "Ġtow": 6864,
      "Ġnegative": 6865,
      "google": 6866,
      "Ġgenerate": 6867,
      "ĠExec": 6868,
      "Ġmort": 6869,
      "aked": 6870,
      "DP": 6871,
      "Uri": 6872,
      "alls": 6873,
      "Ġlif": 6874,
      "Ġdoctor": 6875,
      "Ġintended": 6876,
      "ipped": 6877,
      "ComponentModel": 6878,
      "ĠGood": 6879,
      "files": 6880,
      "ĠPo": 6881,
      "Ġ51": 6882,
      "Ġnoted": 6883,
      "Ġsquare": 6884,
      "Ġbelieved": 6885,
      "Ġgod": 6886,
      "ifications": 6887,
      "ĠBig": 6888,
      "uzz": 6889,
      "Ġspoke": 6890,
      "Ġhouses": 6891,
      "ĠJson": 6892,
      "Ġcamera": 6893,
      "Ġplanning": 6894,
      "Del": 6895,
      "KEY": 6896,
      "Ġbroken": 6897,
      "ologies": 6898,
      "00000000": 6899,
      "Ġpaint": 6900,
      "ounce": 6901,
      "ĠAustralian": 6902,
      "Ġofficer": 6903,
      "initely": 6904,
      ".\");": 6905,
      "Ġdelay": 6906,
      "clean": 6907,
      "Ġknows": 6908,
      "EO": 6909,
      "MD": 6910,
      "Ġlaws": 6911,
      "Ġrise": 6912,
      "ĠÂ£": 6913,
      "Generator": 6914,
      "rum": 6915,
      "çĽ": 6916,
      "Ġfailure": 6917,
      "ĠTO": 6918,
      "ĠMichael": 6919,
      "isl": 6920,
      "NET": 6921,
      "cm": 6922,
      "va": 6923,
      "ints": 6924,
      "Ġrequirements": 6925,
      "Ġillust": 6926,
      "Ġrose": 6927,
      "Ġplays": 6928,
      "ĠLake": 6929,
      "Ġmostly": 6930,
      "ULL": 6931,
      "Ġfrag": 6932,
      "ĠLine": 6933,
      "ĠWil": 6934,
      "Ġ2002": 6935,
      "Ident": 6936,
      "icious": 6937,
      "RES": 6938,
      "imb": 6939,
      "ĠHam": 6940,
      "iger": 6941,
      "Full": 6942,
      "Ġdiss": 6943,
      "Ġincome": 6944,
      "edi": 6945,
      "ĠBur": 6946,
      "Ġreflect": 6947,
      "Ġsy": 6948,
      "Space": 6949,
      "Ġ2001": 6950,
      "ICENSE": 6951,
      "){": 6952,
      "ĠEmp": 6953,
      "ĠMusic": 6954,
      "Schema": 6955,
      "Ġelectric": 6956,
      "Ġbenefits": 6957,
      "cean": 6958,
      "ĠVirgin": 6959,
      "Ġcolon": 6960,
      "ĠAnn": 6961,
      "ĠAward": 6962,
      "Ġbear": 6963,
      "ĠCamp": 6964,
      "Ġtalking": 6965,
      "Ġtrial": 6966,
      "IA": 6967,
      "ĠHT": 6968,
      "Ġprotection": 6969,
      "cket": 6970,
      "Success": 6971,
      "Ġjoint": 6972,
      "Ġ2022": 6973,
      "El": 6974,
      "Ġboat": 6975,
      "ĠSecond": 6976,
      "reland": 6977,
      "eler": 6978,
      "Ġice": 6979,
      "CD": 6980,
      "ĠJesus": 6981,
      "Our": 6982,
      "Ġremaining": 6983,
      "ĠItalian": 6984,
      "ĠĠĠĠĠĠĠĠĠĠĠĠĠĠĠĠĠĠĠĠĠĠĠĠĠĠĠĠĠĠĠĠĠĠĠĠĠĠĠĠĠĠĠĠĠĠĠĠĠĠĠĠĠĠĠĠĠĠĠĠĠĠĠĠ": 6985,
      "apon": 6986,
      "Ġsurg": 6987,
      "ĠSoftware": 6988,
      "imin": 6989,
      "icine": 6990,
      "cut": 6991,
      "ĠException": 6992,
      "Ġwhatever": 6993,
      "Ġcab": 6994,
      "Ġsignal": 6995,
      "Ġofficers": 6996,
      "ĠTor": 6997,
      "Ġoriginally": 6998,
      "Ġwaiting": 6999,
      "Ġowners": 7000,
      "Ġ1990": 7001,
      "Ġunless": 7002,
      "Ġ44": 7003,
      "Ġessential": 7004,
      "Ġgeneration": 7005,
      "shall": 7006,
      "ĠHttp": 7007,
      "}\",": 7008,
      "ensor": 7009,
      "Ġmobile": 7010,
      "Edit": 7011,
      "Ġlaid": 7012,
      "Ġstrategy": 7013,
      "aws": 7014,
      "isc": 7015,
      "friend": 7016,
      "Ġequipment": 7017,
      "Ġminute": 7018,
      "Ġvir": 7019,
      "Ġtesting": 7020,
      "hentication": 7021,
      "Ġtal": 7022,
      "Import": 7023,
      "Ġmale": 7024,
      "Ġvess": 7025,
      "Ġacid": 7026,
      "Sk": 7027,
      "ĠResearch": 7028,
      "owed": 7029,
      "ups": 7030,
      "ĠJose": 7031,
      "Rad": 7032,
      "Ġhero": 7033,
      "$\\": 7034,
      "Ġecho": 7035,
      "ĠSunday": 7036,
      "orough": 7037,
      "These": 7038,
      "astern": 7039,
      "will": 7040,
      "IONS": 7041,
      "Ġing": 7042,
      "ĠCommittee": 7043,
      "Ġplants": 7044,
      "Ġbuildings": 7045,
      "iable": 7046,
      ")));": 7047,
      "TE": 7048,
      "Ġentirely": 7049,
      "irmed": 7050,
      "ĠSur": 7051,
      "Ġstanding": 7052,
      "Ġfix": 7053,
      "lice": 7054,
      "ĠDefault": 7055,
      "Ġbenefit": 7056,
      "Ġrelative": 7057,
      "rapper": 7058,
      "Ġwa": 7059,
      "Ġrevealed": 7060,
      "ĠRichard": 7061,
      "ĠUnder": 7062,
      "Ġreplaced": 7063,
      "je": 7064,
      "Ġletters": 7065,
      "Ġspeech": 7066,
      "Ġliber": 7067,
      "EMAIL": 7068,
      "Ġhur": 7069,
      "ĉĉĉĉĉĉĉĉ": 7070,
      "ogg": 7071,
      "Ġgar": 7072,
      "Ġanimal": 7073,
      "LOC": 7074,
      "Ġvoc": 7075,
      "esi": 7076,
      ")).": 7077,
      "Transform": 7078,
      "BO": 7079,
      "ĠCast": 7080,
      "EventHandler": 7081,
      "Ġliterature": 7082,
      "resents": 7083,
      "Ġfinding": 7084,
      "Ġeffic": 7085,
      "None": 7086,
      "Illustration": 7087,
      "Ġchart": 7088,
      "Ġru": 7089,
      "Ġmulti": 7090,
      "ĠIP": 7091,
      "asket": 7092,
      "Ġintellig": 7093,
      "lea": 7094,
      "BA": 7095,
      "instance": 7096,
      "iliar": 7097,
      "ĠFOR": 7098,
      "ollowing": 7099,
      "DEP": 7100,
      "âĢĿ.": 7101,
      "related": 7102,
      "Ġappropriate": 7103,
      "Ġconducted": 7104,
      "Ġguide": 7105,
      "Ġthank": 7106,
      "ims": 7107,
      "ĠNetwork": 7108,
      "Ġpure": 7109,
      "Ġviews": 7110,
      "allel": 7111,
      "ĠHill": 7112,
      "lications": 7113,
      "quare": 7114,
      "anta": 7115,
      "RA": 7116,
      "includ": 7117,
      "Ġmurder": 7118,
      "Ġwants": 7119,
      "Ġsequence": 7120,
      "ĠCommand": 7121,
      "abilities": 7122,
      "Ġmix": 7123,
      "ĠCongress": 7124,
      "ĠShow": 7125,
      "Ġfinish": 7126,
      "std": 7127,
      "ĠEach": 7128,
      "ĠPRO": 7129,
      "Ġregarding": 7130,
      "Ġasset": 7131,
      "ĠWARR": 7132,
      "Ġworkers": 7133,
      "ĠBill": 7134,
      "them": 7135,
      "Ġoperator": 7136,
      "Ġfashion": 7137,
      "oday": 7138,
      "SA": 7139,
      "ĠTown": 7140,
      "Ġdepth": 7141,
      "Ġsuggested": 7142,
      "Ġdesire": 7143,
      "life": 7144,
      "Ġprocesses": 7145,
      "Ġcombined": 7146,
      "Ġgain": 7147,
      "256": 7148,
      "Ġlayer": 7149,
      "usr": 7150,
      "Ġglad": 7151,
      "would": 7152,
      "Ġrain": 7153,
      "Ġahead": 7154,
      "Ġtreated": 7155,
      "Ġring": 7156,
      "Ġcouldn": 7157,
      "RL": 7158,
      "vision": 7159,
      "igen": 7160,
      "care": 7161,
      "Ġnuc": 7162,
      "Double": 7163,
      "AspNetCore": 7164,
      "tests": 7165,
      "Ġsides": 7166,
      "Pack": 7167,
      "Ġdesc": 7168,
      "olver": 7169,
      "ournament": 7170,
      "about": 7171,
      "etween": 7172,
      "Num": 7173,
      "Ġpages": 7174,
      "Ġoccurred": 7175,
      "some": 7176,
      "ĠDi": 7177,
      "estic": 7178,
      "Ġteaching": 7179,
      "sche": 7180,
      "Ġnut": 7181,
      "Ġ70": 7182,
      "ĠWARRANT": 7183,
      "ĠResource": 7184,
      "cb": 7185,
      "isted": 7186,
      "Ġextended": 7187,
      "Ġadvance": 7188,
      "Ã¨": 7189,
      "imary": 7190,
      "ixel": 7191,
      "elegate": 7192,
      "ython": 7193,
      "oting": 7194,
      "select": 7195,
      "è¦": 7196,
      "Guid": 7197,
      "IGHT": 7198,
      "Texture": 7199,
      "TextBox": 7200,
      "Ġpool": 7201,
      "Ġlaun": 7202,
      "Ġbranch": 7203,
      "uan": 7204,
      "Ġadjust": 7205,
      "asant": 7206,
      "TabIndex": 7207,
      "Ġparties": 7208,
      "task": 7209,
      "WAR": 7210,
      "ĠCD": 7211,
      "Ġsnow": 7212,
      "cur": 7213,
      "ĠRock": 7214,
      "Ġflat": 7215,
      "endar": 7216,
      "uy": 7217,
      "Ġcaught": 7218,
      "åı¯": 7219,
      "iences": 7220,
      ")\"": 7221,
      "ĠInv": 7222,
      "Ġneighbor": 7223,
      "Ġdirectory": 7224,
      "enant": 7225,
      "Art": 7226,
      "ĠWal": 7227,
      "isms": 7228,
      "Ġbeauty": 7229,
      "Ġkit": 7230,
      "Job": 7231,
      "eper": 7232,
      "Ġstars": 7233,
      "entially": 7234,
      "Parser": 7235,
      "Ġdrug": 7236,
      "aks": 7237,
      "Ġanx": 7238,
      "Here": 7239,
      "covery": 7240,
      "ategories": 7241,
      "oz": 7242,
      "Effect": 7243,
      "ä»¥": 7244,
      "æŀ": 7245,
      "Metadata": 7246,
      "Ġinh": 7247,
      "Ġordered": 7248,
      "Ġleague": 7249,
      "nam": 7250,
      "Ġil": 7251,
      "8010": 7252,
      "Supp": 7253,
      "ĠScot": 7254,
      "ĠBook": 7255,
      "Ear": 7256,
      "Ġfavorite": 7257,
      "Car": 7258,
      "Ġcommit": 7259,
      "oder": 7260,
      "Ġmonitor": 7261,
      "Ġcities": 7262,
      "Ñĩ": 7263,
      "ansion": 7264,
      "omic": 7265,
      "IsNullOr": 7266,
      "Ġplain": 7267,
      "lers": 7268,
      "uls": 7269,
      "Ġinnov": 7270,
      "Ġsaved": 7271,
      "Details": 7272,
      "à¤": 7273,
      "sn": 7274,
      "Attributes": 7275,
      "ĠCustom": 7276,
      "Perm": 7277,
      "ications": 7278,
      "Ġgall": 7279,
      "ĠTer": 7280,
      "Ġguard": 7281,
      "Ġstopped": 7282,
      "ĠSun": 7283,
      "Ġmyst": 7284,
      "________": 7285,
      "ĠMass": 7286,
      "Ġprocedure": 7287,
      "ĠCap": 7288,
      "ĠJud": 7289,
      "Ġwonderful": 7290,
      "Ġdivision": 7291,
      "icago": 7292,
      "ĠIEnumerable": 7293,
      "certain": 7294,
      "Ġvote": 7295,
      "Logger": 7296,
      "tw": 7297,
      "Interface": 7298,
      "Ġchallenge": 7299,
      "Ġ\\\\": 7300,
      "grade": 7301,
      "utch": 7302,
      "Ġapproximately": 7303,
      "Ġpra": 7304,
      "Ġlisted": 7305,
      "Ġfilms": 7306,
      "ci": 7307,
      "ffff": 7308,
      "Ġdomain": 7309,
      "Ġhousehold": 7310,
      "Ġarrest": 7311,
      "azz": 7312,
      "ĠHol": 7313,
      "Match": 7314,
      "Ġbill": 7315,
      "lua": 7316,
      "His": 7317,
      "Ġneither": 7318,
      "ĠMel": 7319,
      "END": 7320,
      "Ġgreatest": 7321,
      "ĠTexas": 7322,
      "Ġvehicle": 7323,
      "Ġattended": 7324,
      "omet": 7325,
      "Ġauthority": 7326,
      "Ġlie": 7327,
      "ĠĠĠĠĠĠĠĠĠĠĠĠĠĠĠĠĠĠĠĠ": 7328,
      "Ġclients": 7329,
      "Ġtum": 7330,
      "Ġagent": 7331,
      "ogether": 7332,
      "sign": 7333,
      "amin": 7334,
      "Ġspend": 7335,
      "Ġaudience": 7336,
      "ĠGen": 7337,
      "Ut": 7338,
      "Author": 7339,
      "åĮ": 7340,
      "ais": 7341,
      "Close": 7342,
      "ĠOrder": 7343,
      "ĠLoad": 7344,
      "Ġepisode": 7345,
      "Ġmountain": 7346,
      "Folder": 7347,
      "Exp": 7348,
      "Ġduty": 7349,
      "Convert": 7350,
      "kg": 7351,
      "Init": 7352,
      "Ġdiagn": 7353,
      "Ġrestaur": 7354,
      "oded": 7355,
      "Before": 7356,
      "uler": 7357,
      "phone": 7358,
      "gypt": 7359,
      "ĠâĶĤ": 7360,
      "ln": 7361,
      "ocity": 7362,
      "Internal": 7363,
      "_\\": 7364,
      "rome": 7365,
      "cmd": 7366,
      "Ġpartner": 7367,
      "application": 7368,
      "font": 7369,
      "æ³": 7370,
      "Ġcombination": 7371,
      "Ġexternal": 7372,
      "Sum": 7373,
      "Ġcategory": 7374,
      "ĠEN": 7375,
      "mult": 7376,
      "Ġsolutions": 7377,
      "Ġfavour": 7378,
      "Ġcontrast": 7379,
      "ĠBank": 7380,
      "'.": 7381,
      "Ġnarrow": 7382,
      "Ġdespite": 7383,
      "weight": 7384,
      "Descriptor": 7385,
      "izontal": 7386,
      "ĠKore": 7387,
      "rical": 7388,
      "uted": 7389,
      "ĠEv": 7390,
      "Holder": 7391,
      "utive": 7392,
      "Pay": 7393,
      "Ġusual": 7394,
      "essions": 7395,
      "ĠSO": 7396,
      "Ġnotes": 7397,
      "Clear": 7398,
      "dest": 7399,
      "EB": 7400,
      "stood": 7401,
      "Visible": 7402,
      "Ġpoly": 7403,
      "atalog": 7404,
      "THE": 7405,
      "Ġtechniques": 7406,
      "ĠMuseum": 7407,
      "Ġhighlight": 7408,
      "TYPE": 7409,
      "Ġclearly": 7410,
      "non": 7411,
      "101": 7412,
      "ĠFre": 7413,
      "Card": 7414,
      "Ġsin": 7415,
      "Ġshowing": 7416,
      "ĠOffice": 7417,
      "Ġmarketing": 7418,
      "Visual": 7419,
      "ĠBoth": 7420,
      "orship": 7421,
      "istan": 7422,
      "Ġapprec": 7423,
      "ĠChild": 7424,
      "%)": 7425,
      "Ġforget": 7426,
      "Note": 7427,
      "ĠTim": 7428,
      "000000": 7429,
      "edx": 7430,
      "Ġpurchase": 7431,
      "control": 7432,
      "ĠIII": 7433,
      "emporary": 7434,
      "itz": 7435,
      "also": 7436,
      "Ġegg": 7437,
      "ĠQueen": 7438,
      "Ġwear": 7439,
      "ĠProperty": 7440,
      "ĠItaly": 7441,
      "Ġspl": 7442,
      "apped": 7443,
      "hr": 7444,
      "ìĹ": 7445,
      "Ġwalls": 7446,
      "Ġjump": 7447,
      "Ġunivers": 7448,
      "Ġinner": 7449,
      "dat": 7450,
      "%%%%%%%%%%%%%%%%": 7451,
      "ĠPower": 7452,
      "Fin": 7453,
      "âĶĢâĶĢâĶĢâĶĢ": 7454,
      "æİ": 7455,
      "Ġextension": 7456,
      "Ġcalling": 7457,
      "Ġsupposed": 7458,
      "Ġshut": 7459,
      "ĠTH": 7460,
      "rics": 7461,
      "noon": 7462,
      "avor": 7463,
      "ĠPeople": 7464,
      "$$": 7465,
      "ĠCarol": 7466,
      "ä¸º": 7467,
      "track": 7468,
      "Ġfrequently": 7469,
      "Ġobvious": 7470,
      "`.": 7471,
      "what": 7472,
      "Ġmarked": 7473,
      "æĢ": 7474,
      "During": 7475,
      "buffer": 7476,
      "docker": 7477,
      "ertificate": 7478,
      "Ġhealthy": 7479,
      "1000": 7480,
      "ĠFig": 7481,
      "Ġextremely": 7482,
      "ĠScience": 7483,
      "Ġexamples": 7484,
      "Ġmock": 7485,
      "ĠMap": 7486,
      "Screen": 7487,
      "Ġmenu": 7488,
      "Ġ64": 7489,
      "andon": 7490,
      "anda": 7491,
      "ĠDemocr": 7492,
      "bel": 7493,
      "Prot": 7494,
      "Ġagreement": 7495,
      "ĥ½": 7496,
      "ĠHot": 7497,
      "aser": 7498,
      "Ġthoughts": 7499,
      "Behav": 7500,
      "Ang": 7501,
      "ĠEqu": 7502,
      "Ġí": 7503,
      "ola": 7504,
      "Ġamazing": 7505,
      "war": 7506,
      "ircraft": 7507,
      "hered": 7508,
      "Ġles": 7509,
      "Ġgarden": 7510,
      ">)": 7511,
      "APTER": 7512,
      "loyment": 7513,
      "osh": 7514,
      "column": 7515,
      "Ġshop": 7516,
      "sql": 7517,
      "ç½": 7518,
      "Ġhelps": 7519,
      "Ġdifferences": 7520,
      "Ġsir": 7521,
      "ructions": 7522,
      "Ġ\"/": 7523,
      "Ġdriver": 7524,
      "Ġsuddenly": 7525,
      "Ġfill": 7526,
      "ĠSy": 7527,
      "edit": 7528,
      "Func": 7529,
      "claimed": 7530,
      "Ġterrit": 7531,
      "ador": 7532,
      "Ġsecure": 7533,
      "Ġtraffic": 7534,
      "Ġcer": 7535,
      "Ġsports": 7536,
      "irtual": 7537,
      "Ġcommission": 7538,
      "Ne": 7539,
      "=\\": 7540,
      "ĠIreland": 7541,
      "Network": 7542,
      "MT": 7543,
      "Ġstrange": 7544,
      "Flow": 7545,
      "Ġcorpor": 7546,
      "Ġwinning": 7547,
      "aturday": 7548,
      "Dictionary": 7549,
      "Ġlaunch": 7550,
      "uint": 7551,
      "ĠÐ²": 7552,
      "Ġguid": 7553,
      "ĠServer": 7554,
      "debug": 7555,
      "Required": 7556,
      "Ġ1980": 7557,
      "SRC": 7558,
      "Ġpassion": 7559,
      "Pe": 7560,
      "ĠImage": 7561,
      "normal": 7562,
      "ĠChristmas": 7563,
      "Ġefficient": 7564,
      "Ġslightly": 7565,
      "Ġchain": 7566,
      "Converter": 7567,
      "iveness": 7568,
      "Compar": 7569,
      "ĠCanadian": 7570,
      "roph": 7571,
      "Ġexists": 7572,
      "Ġalgorithm": 7573,
      "ras": 7574,
      "Execute": 7575,
      "cache": 7576,
      "jet": 7577,
      "power": 7578,
      "ĠAtl": 7579,
      "Ġjoy": 7580,
      "Ġearn": 7581,
      "ëĭ¤": 7582,
      "inations": 7583,
      "Ġenable": 7584,
      "Media": 7585,
      "Ġartists": 7586,
      "lean": 7587,
      "attr": 7588,
      "Ġpictures": 7589,
      "Ġbreath": 7590,
      "scale": 7591,
      "Tra": 7592,
      "ASE": 7593,
      "ĠStep": 7594,
      "center": 7595,
      "Ġii": 7596,
      "widget": 7597,
      "Americ": 7598,
      "ĠLife": 7599,
      "pet": 7600,
      "Ġtroops": 7601,
      "token": 7602,
      "Op": 7603,
      "Ġhotel": 7604,
      "writ": 7605,
      "amber": 7606,
      "emo": 7607,
      "Ġexercise": 7608,
      "ĠUnityEngine": 7609,
      "Ġ48": 7610,
      "stone": 7611,
      "arant": 7612,
      "DF": 7613,
      "insert": 7614,
      "Av": 7615,
      "ĠSl": 7616,
      "Ġtele": 7617,
      "Contract": 7618,
      "Ġbatter": 7619,
      "ĠFace": 7620,
      "Ġremov": 7621,
      "Fore": 7622,
      "Support": 7623,
      "ented": 7624,
      "ĠAv": 7625,
      "Ġhash": 7626,
      "Ġclaims": 7627,
      "Ġphen": 7628,
      "Ġmaybe": 7629,
      "ographic": 7630,
      "Ġexistence": 7631,
      "pective": 7632,
      "Ġpredict": 7633,
      "Ġadvice": 7634,
      "INE": 7635,
      "å½": 7636,
      "icture": 7637,
      "Ġwouldn": 7638,
      "Rest": 7639,
      "iffer": 7640,
      "Events": 7641,
      "ĠSecret": 7642,
      "ynchron": 7643,
      "Ġunknown": 7644,
      "Ġdeclared": 7645,
      "ogen": 7646,
      "ĠÑģ": 7647,
      "Ġmeasures": 7648,
      ";;;;": 7649,
      "Ġaccepted": 7650,
      "Ġtrouble": 7651,
      "ĠCatholic": 7652,
      "Ġportion": 7653,
      "utils": 7654,
      "Ġmotor": 7655,
      "Ġnewsp": 7656,
      "ĠAcademy": 7657,
      "Ð¼": 7658,
      "Ġraise": 7659,
      "Float": 7660,
      "ĠBrown": 7661,
      "frame": 7662,
      "?,": 7663,
      "remove": 7664,
      "ĠRussia": 7665,
      "UE": 7666,
      "Ġdeleg": 7667,
      "Ġpil": 7668,
      "ceive": 7669,
      "Dest": 7670,
      "xt": 7671,
      "atural": 7672,
      "Ġvictory": 7673,
      "Ġinjury": 7674,
      "Ġdepartment": 7675,
      "dc": 7676,
      "Ġextract": 7677,
      "unte": 7678,
      "Ġreality": 7679,
      "Ġdeveloping": 7680,
      "Ġvs": 7681,
      "iously": 7682,
      "ĠAssembly": 7683,
      "Ġ\"\\": 7684,
      "ĠGreek": 7685,
      "ĠJim": 7686,
      "Ġadministration": 7687,
      "Ġcoordin": 7688,
      "Ġsenior": 7689,
      "ĠPet": 7690,
      "world": 7691,
      "ifted": 7692,
      "Ġtruly": 7693,
      "Decl": 7694,
      "arters": 7695,
      "Ġadvert": 7696,
      "GO": 7697,
      "utely": 7698,
      "ĠBest": 7699,
      "eries": 7700,
      "roud": 7701,
      "Ġtheme": 7702,
      "iar": 7703,
      "orses": 7704,
      "Ġtwice": 7705,
      "Ġholding": 7706,
      "Ġ500": 7707,
      "Ġ??": 7708,
      "Ġframework": 7709,
      "Ġhistorical": 7710,
      "ĠArab": 7711,
      "Ġidentify": 7712,
      "Ġban": 7713,
      "Ġicon": 7714,
      "ĠDom": 7715,
      "inity": 7716,
      "GE": 7717,
      "custom": 7718,
      "ventory": 7719,
      "è¡Į": 7720,
      "Ġ$\"": 7721,
      "ading": 7722,
      "ifies": 7723,
      "ById": 7724,
      "Foot": 7725,
      "Ġpolic": 7726,
      "Mock": 7727,
      "Ġorders": 7728,
      "ãĤĭ": 7729,
      "Ġstack": 7730,
      "Ġseconds": 7731,
      "Ġ1000": 7732,
      "æĶ": 7733,
      "Ġpassing": 7734,
      "Ġemployees": 7735,
      "DW": 7736,
      "bles": 7737,
      "ĠSing": 7738,
      "Ġemotion": 7739,
      "Ġarguments": 7740,
      "Ġmatches": 7741,
      "LA": 7742,
      "ĠEX": 7743,
      "copy": 7744,
      "Ign": 7745,
      "è§": 7746,
      "INCL": 7747,
      "Ġkeeping": 7748,
      "bi": 7749,
      "Ġlaugh": 7750,
      "ROM": 7751,
      "ĠStar": 7752,
      "ĠCard": 7753,
      "Ġarticles": 7754,
      "Ġcauses": 7755,
      "Fields": 7756,
      "clusive": 7757,
      "Invalid": 7758,
      "second": 7759,
      "ĠWood": 7760,
      "ĠSM": 7761,
      "Ġsympt": 7762,
      "Ġchosen": 7763,
      "Ġ./": 7764,
      "mathbb": 7765,
      "bro": 7766,
      "Ġelev": 7767,
      "Design": 7768,
      "Ġadvent": 7769,
      "ometry": 7770,
      "Ġsched": 7771,
      "phi": 7772,
      "Ġimproved": 7773,
      "aded": 7774,
      "agram": 7775,
      "Azure": 7776,
      "Ġdescribe": 7777,
      "ĠMil": 7778,
      "Ġexpert": 7779,
      "Ġprincipal": 7780,
      "Ġfederal": 7781,
      "Ġcomments": 7782,
      "Ġzero": 7783,
      "Ġcommunities": 7784,
      "EW": 7785,
      "Ġhabit": 7786,
      "GB": 7787,
      "Ġcoff": 7788,
      "Ġflight": 7789,
      "Ġbillion": 7790,
      "ifically": 7791,
      "ĉĉĉĉĉĉĉ": 7792,
      "Ġinterpret": 7793,
      "support": 7794,
      "activity": 7795,
      "ĠĠĠĠĠĠĠĠĠĠĠĠĠĠĠĠĠĠĠĠĠ": 7796,
      "Ġaffected": 7797,
      "ĠYear": 7798,
      "Äģ": 7799,
      "Ġ1999": 7800,
      "enger": 7801,
      "rat": 7802,
      "bal": 7803,
      "Ġsomewhat": 7804,
      "Ġcreation": 7805,
      "same": 7806,
      "Ġpairs": 7807,
      "hash": 7808,
      "Doc": 7809,
      "Ġshell": 7810,
      "Ġisol": 7811,
      "istration": 7812,
      "Report": 7813,
      "Ġimpossible": 7814,
      "Ġopportunities": 7815,
      "NS": 7816,
      "Ġrough": 7817,
      "Ġmatrix": 7818,
      "Ġdistingu": 7819,
      "Ġtor": 7820,
      "Ġvector": 7821,
      "ãģĹ": 7822,
      "ipeline": 7823,
      "ĠFort": 7824,
      "akers": 7825,
      "reme": 7826,
      "Ġsoldiers": 7827,
      "ODO": 7828,
      "Ð¾Ð²": 7829,
      "ãĥ³": 7830,
      "Ġbought": 7831,
      "Ġvac": 7832,
      "Ġhun": 7833,
      "Ġmissing": 7834,
      "ĠCaptain": 7835,
      "Ġonto": 7836,
      "Ġsilver": 7837,
      "anguages": 7838,
      "ĠBecause": 7839,
      "Ġwitness": 7840,
      "Ġbytes": 7841,
      "apache": 7842,
      "Ġrepeated": 7843,
      "fix": 7844,
      "Ġcolour": 7845,
      "ĠHome": 7846,
      "Ġoperating": 7847,
      "Ġadding": 7848,
      "Ġsmart": 7849,
      "emon": 7850,
      "abric": 7851,
      "Resources": 7852,
      "HER": 7853,
      "]:": 7854,
      "annels": 7855,
      "Ġserial": 7856,
      "Ġexpressed": 7857,
      "actor": 7858,
      "Ġassembly": 7859,
      "eh": 7860,
      "Ġstorm": 7861,
      "ĠEngine": 7862,
      "scape": 7863,
      "Ġdinner": 7864,
      "orph": 7865,
      "atern": 7866,
      "beta": 7867,
      "ĠEgypt": 7868,
      "Ġstudio": 7869,
      "ä»¶": 7870,
      "Ġcultural": 7871,
      "Ġexperienced": 7872,
      "Ġmel": 7873,
      "ĠDen": 7874,
      "Ġmaintain": 7875,
      "phas": 7876,
      "thlet": 7877,
      "orders": 7878,
      "Ġincorpor": 7879,
      "DA": 7880,
      "Ġprocessing": 7881,
      "Ġdelight": 7882,
      "spring": 7883,
      "contin": 7884,
      "Ġsubjects": 7885,
      "Invoke": 7886,
      "ĠSil": 7887,
      "Ġsurvey": 7888,
      "sect": 7889,
      "Gr": 7890,
      "Ġregions": 7891,
      "words": 7892,
      "tree": 7893,
      ">(\"": 7894,
      "ĠVictor": 7895,
      "ĠNews": 7896,
      "Sharp": 7897,
      "Ġinsurance": 7898,
      "False": 7899,
      "Ġbudget": 7900,
      "RI": 7901,
      "Ġnorthern": 7902,
      "apply": 7903,
      "Ġmainly": 7904,
      "ali": 7905,
      "sur": 7906,
      "ĠProcess": 7907,
      "Ġ$@": 7908,
      "æĹ¶": 7909,
      "ĠOnly": 7910,
      "Ġidentity": 7911,
      "ĠFlor": 7912,
      "ucky": 7913,
      "Compiler": 7914,
      "ĠIT": 7915,
      "dr": 7916,
      "Ġ~=": 7917,
      "La": 7918,
      "ĠChicago": 7919,
      "Profile": 7920,
      "ĠLady": 7921,
      "fol": 7922,
      "ĠIll": 7923,
      "URL": 7924,
      "ĠLocal": 7925,
      "Transaction": 7926,
      "Queue": 7927,
      "andard": 7928,
      "Ġtun": 7929,
      "inds": 7930,
      "Ġought": 7931,
      "iration": 7932,
      "æį": 7933,
      "ëĬ": 7934,
      "shot": 7935,
      "Ġbridge": 7936,
      "Ġjson": 7937,
      "Ġdrawn": 7938,
      "Other": 7939,
      "Ġfeatured": 7940,
      "vo": 7941,
      "mo": 7942,
      "rible": 7943,
      "Ġpanel": 7944,
      "toString": 7945,
      "Ġsequ": 7946,
      "Ġmedium": 7947,
      "Ġcitizens": 7948,
      "Ġcrew": 7949,
      "Ġmental": 7950,
      "World": 7951,
      "èĢ": 7952,
      "FO": 7953,
      "ä¿": 7954,
      "Ġreferred": 7955,
      "ĠFree": 7956,
      "å®ļ": 7957,
      "ĠError": 7958,
      "crete": 7959,
      "Security": 7960,
      "Ġsouthern": 7961,
      ")),": 7962,
      "Ġmath": 7963,
      "--\"": 7964,
      "Ġpublish": 7965,
      "urer": 7966,
      "Ġfont": 7967,
      "Global": 7968,
      "ToolStripMenuItem": 7969,
      "Ġprofile": 7970,
      "ĠParam": 7971,
      "Ġwealth": 7972,
      "ĠSocial": 7973,
      "ads": 7974,
      "Mouse": 7975,
      "Ġeasier": 7976,
      "Ġcompanion": 7977,
      "cap": 7978,
      "lambda": 7979,
      "SL": 7980,
      "rance": 7981,
      "ìĿ´": 7982,
      "ĠContext": 7983,
      "Ġthee": 7984,
      "ĠGuid": 7985,
      "Ġlisten": 7986,
      "Ġdoct": 7987,
      "Progress": 7988,
      "Ġrecover": 7989,
      "Ġhidden": 7990,
      "Ġdetect": 7991,
      "bridge": 7992,
      "Ġlose": 7993,
      "clear": 7994,
      "Ġdetail": 7995,
      "rent": 7996,
      "Ġyellow": 7997,
      "Ġhat": 7998,
      "Ġguess": 7999,
      "product": 8000,
      "Ġtaught": 8001,
      "Ġafford": 8002,
      "Ġwine": 8003,
      "iot": 8004,
      "ĠBack": 8005,
      "Ġuniversity": 8006,
      "Ġhall": 8007,
      "Ġeconomy": 8008,
      "Ġexchange": 8009,
      "Ġ1970": 8010,
      "Ġaid": 8011,
      "Password": 8012,
      "æĸĩ": 8013,
      "GR": 8014,
      "ulf": 8015,
      "Ġedition": 8016,
      "hs": 8017,
      "Ġthanks": 8018,
      "æŃ": 8019,
      "Ġpray": 8020,
      "issue": 8021,
      "è¦ģ": 8022,
      "âĢĺ": 8023,
      "two": 8024,
      "Ġpara": 8025,
      "Ġinsert": 8026,
      "REE": 8027,
      "Sn": 8028,
      "ARGET": 8029,
      "Ġha": 8030,
      "Ġmir": 8031,
      "Ġsplit": 8032,
      "Ġ\"\"\"": 8033,
      "iki": 8034,
      "PA": 8035,
      "Auth": 8036,
      "Ġcounty": 8037,
      "Ġnorm": 8038,
      "Ġslowly": 8039,
      "=$(": 8040,
      "Ġsubstant": 8041,
      "Ġplus": 8042,
      "Ġbalance": 8043,
      "TAG": 8044,
      "lif": 8045,
      "imit": 8046,
      "ĠLand": 8047,
      "iday": 8048,
      "move": 8049,
      "fire": 8050,
      "Ġremote": 8051,
      "BUILD": 8052,
      "]]": 8053,
      "Ġproved": 8054,
      "Ġprove": 8055,
      "ONG": 8056,
      "Ġvision": 8057,
      "ĠWhere": 8058,
      "CodeAttribute": 8059,
      "Ġaccompl": 8060,
      "ãģ«": 8061,
      "Ġsmooth": 8062,
      "Ġmixed": 8063,
      "olds": 8064,
      "km": 8065,
      "Ġalternative": 8066,
      "Ġconsists": 8067,
      "Ã¢": 8068,
      "Ġdiet": 8069,
      "Ġsitting": 8070,
      "äºĨ": 8071,
      "Ġhonest": 8072,
      "eller": 8073,
      "Ġfans": 8074,
      "actory": 8075,
      "Extension": 8076,
      "Ġlaunched": 8077,
      "Ġ),": 8078,
      "Ġbrown": 8079,
      "images": 8080,
      "offset": 8081,
      "ĠWomen": 8082,
      "Ġlies": 8083,
      "Ġapart": 8084,
      "arian": 8085,
      "Ġtail": 8086,
      "FS": 8087,
      "Ġescape": 8088,
      "ĠSpain": 8089,
      "entry": 8090,
      "ĠDesign": 8091,
      "Ġindu": 8092,
      "lang": 8093,
      "oston": 8094,
      "Ġhydro": 8095,
      "Two": 8096,
      "Ġseek": 8097,
      "Ġcart": 8098,
      "azy": 8099,
      "Ġorganizations": 8100,
      "Ġbaby": 8101,
      "uable": 8102,
      "Ġbelief": 8103,
      "Ġstret": 8104,
      "Ġcircumstances": 8105,
      "ĠMa": 8106,
      "ĠDebug": 8107,
      "register": 8108,
      "serve": 8109,
      "Ġresulting": 8110,
      "Many": 8111,
      "Ġdrag": 8112,
      "DC": 8113,
      "Symbol": 8114,
      "Stop": 8115,
      "Identity": 8116,
      "Ġreligion": 8117,
      "high": 8118,
      "ĠTop": 8119,
      "ĠApache": 8120,
      "ĠEducation": 8121,
      "portion": 8122,
      "Lock": 8123,
      "Ġwave": 8124,
      "NullException": 8125,
      "Ġconvention": 8126,
      "ĠDown": 8127,
      "ĠÂ©": 8128,
      "BR": 8129,
      "ĠPass": 8130,
      "Ġpossibly": 8131,
      "ĠIrish": 8132,
      "}^{": 8133,
      "Ġformation": 8134,
      "stack": 8135,
      "Ġ?:": 8136,
      "Ġdriving": 8137,
      "Ġpropos": 8138,
      "ez": 8139,
      "auth": 8140,
      "Ġtechnical": 8141,
      "Obj": 8142,
      "ĠPress": 8143,
      "fall": 8144,
      "ighter": 8145,
      "Ġ1998": 8146,
      "Ġauthors": 8147,
      "iÃ³n": 8148,
      "Ġmolec": 8149,
      "Ġda": 8150,
      "FOR": 8151,
      "Ġpit": 8152,
      "Ġwed": 8153,
      "Ġblo": 8154,
      "ĠPac": 8155,
      "Ġawarded": 8156,
      "Ġleads": 8157,
      "Ġneck": 8158,
      "Debugger": 8159,
      "()]": 8160,
      "Ġowned": 8161,
      "python": 8162,
      "dp": 8163,
      "Ġmanage": 8164,
      "Ġbroke": 8165,
      "Ġhaven": 8166,
      "Ġcallback": 8167,
      "!--": 8168,
      "Ġcollected": 8169,
      "oop": 8170,
      "Ġproof": 8171,
      "ultural": 8172,
      "uilt": 8173,
      "ortunately": 8174,
      "izable": 8175,
      "Ġextent": 8176,
      "éĹ": 8177,
      "ĠCurrent": 8178,
      "dates": 8179,
      "Ġinvestment": 8180,
      "parse": 8181,
      "JsonProperty": 8182,
      "Compat": 8183,
      "ipl": 8184,
      "Results": 8185,
      "Ġfruit": 8186,
      "imension": 8187,
      "Ġvariables": 8188,
      "ĠEarth": 8189,
      "ĠApplication": 8190,
      "Ġbreast": 8191,
      "Ġinstrument": 8192,
      "Begin": 8193,
      "Ġexperiences": 8194,
      "ATA": 8195,
      "Ġsad": 8196,
      "ĠOnce": 8197,
      "Ġliqu": 8198,
      "Ġexplain": 8199,
      "ĠRail": 8200,
      "ĠFurther": 8201,
      "hether": 8202,
      "rich": 8203,
      "Ġaccident": 8204,
      "prise": 8205,
      "Ġemployed": 8206,
      "}_{": 8207,
      "å¹": 8208,
      "Ġrelevant": 8209,
      "Ġmusical": 8210,
      "mes": 8211,
      "Ġfamiliar": 8212,
      "ĠMexico": 8213,
      "Look": 8214,
      "Ġkill": 8215,
      "match": 8216,
      "Ġcas": 8217,
      "ĠPrince": 8218,
      "settings": 8219,
      "illy": 8220,
      "herit": 8221,
      "Ġclimate": 8222,
      "ĠMult": 8223,
      "Ġestate": 8224,
      "foot": 8225,
      "Ġscientific": 8226,
      "Ġloop": 8227,
      "Ġconference": 8228,
      "John": 8229,
      "-\\": 8230,
      "bat": 8231,
      "Ġscheme": 8232,
      "Ġfrequency": 8233,
      "ĠGal": 8234,
      "VID": 8235,
      "site": 8236,
      "Ġserving": 8237,
      "Ġfro": 8238,
      "Ġdialog": 8239,
      "Ġgranted": 8240,
      "ĠMur": 8241,
      "Ġspeaking": 8242,
      "CFLAGS": 8243,
      "ĠMaster": 8244,
      "Total": 8245,
      "ilon": 8246,
      "ernel": 8247,
      "Package": 8248,
      "times": 8249,
      "Ġflu": 8250,
      "FR": 8251,
      "CXX": 8252,
      "Ġscored": 8253,
      "Ġconversation": 8254,
      "icker": 8255,
      "Own": 8256,
      "ĠFire": 8257,
      "Ġscope": 8258,
      "Ġends": 8259,
      "inem": 8260,
      "rehens": 8261,
      "ĠLast": 8262,
      "ipping": 8263,
      "pute": 8264,
      "Ġadministr": 8265,
      "Ġtechnique": 8266,
      "typeparam": 8267,
      "Since": 8268,
      "Generated": 8269,
      "success": 8270,
      "Coll": 8271,
      "big": 8272,
      "Ġton": 8273,
      "May": 8274,
      "NO": 8275,
      "Character": 8276,
      "itan": 8277,
      "prov": 8278,
      "Role": 8279,
      "Ġinhib": 8280,
      "III": 8281,
      "Ġwindows": 8282,
      "orry": 8283,
      "Ġshr": 8284,
      "Ġperman": 8285,
      "riev": 8286,
      "Ġip": 8287,
      "Ġtrend": 8288,
      "apes": 8289,
      "ih": 8290,
      "Ġtherapy": 8291,
      "osa": 8292,
      "Ġerrors": 8293,
      "microsoft": 8294,
      "Ġfreedom": 8295,
      "2018": 8296,
      "FILE": 8297,
      "Ġdiscussion": 8298,
      "%,": 8299,
      "Ġheader": 8300,
      "Copy": 8301,
      "Graph": 8302,
      "Ġminimum": 8303,
      "bury": 8304,
      "lisher": 8305,
      "Ġafternoon": 8306,
      "Ġreject": 8307,
      "Keys": 8308,
      "hus": 8309,
      "Ġdivided": 8310,
      "acle": 8311,
      "NOT": 8312,
      "Ġdefinition": 8313,
      "White": 8314,
      "RT": 8315,
      "Ġtells": 8316,
      "ERS": 8317,
      "ĠTable": 8318,
      "worth": 8319,
      "æĮ": 8320,
      "menu": 8321,
      "ĠSaturday": 8322,
      "Ġyes": 8323,
      "ĠTimes": 8324,
      "Ġmach": 8325,
      "ĠZeal": 8326,
      "Ġ'\\": 8327,
      "amer": 8328,
      "estamp": 8329,
      "Ġexplained": 8330,
      "ĠNumber": 8331,
      "ĠPlayer": 8332,
      "organ": 8333,
      "ĠRome": 8334,
      "Ġfigures": 8335,
      "define": 8336,
      "Ġreserved": 8337,
      "ĠBob": 8338,
      "Ġsale": 8339,
      "ĠExt": 8340,
      "header": 8341,
      "mode": 8342,
      "Ġsounds": 8343,
      "Ġgro": 8344,
      "SET": 8345,
      "otype": 8346,
      "Ġlinks": 8347,
      "Variable": 8348,
      "Ġaddresses": 8349,
      "rying": 8350,
      "Console": 8351,
      "Ġroof": 8352,
      "Ġblow": 8353,
      "Ġsuccessfully": 8354,
      "ĠConvert": 8355,
      "umes": 8356,
      "ĠWho": 8357,
      "Ġships": 8358,
      "ERR": 8359,
      "Ġprovider": 8360,
      "Ġcontinues": 8361,
      "Ġideal": 8362,
      "Lib": 8363,
      "BS": 8364,
      "delta": 8365,
      "send": 8366,
      "Ġ65": 8367,
      "aze": 8368,
      "pub": 8369,
      "Ġdance": 8370,
      "ells": 8371,
      "Ġopposite": 8372,
      "Ġissued": 8373,
      "Ġreform": 8374,
      "Ġtab": 8375,
      "mosp": 8376,
      "Ġsharp": 8377,
      "ivalent": 8378,
      "sim": 8379,
      "ĠLu": 8380,
      "Ġsail": 8381,
      "`,": 8382,
      "ĠHistory": 8383,
      "Ġdefinitely": 8384,
      "ĠBit": 8385,
      "cknow": 8386,
      "Ġ46": 8387,
      "appoint": 8388,
      "quad": 8389,
      "oked": 8390,
      "Ġsamples": 8391,
      "istent": 8392,
      "kins": 8393,
      "Ġrent": 8394,
      "(@": 8395,
      "Ġtrav": 8396,
      "opping": 8397,
      "ĠDirector": 8398,
      "Ġflex": 8399,
      "Ġinterests": 8400,
      "Ġdynamic": 8401,
      "ko": 8402,
      ">:": 8403,
      "Ġpositions": 8404,
      "Ġshel": 8405,
      "Ġstructures": 8406,
      "RM": 8407,
      "Ġmatters": 8408,
      "Ġacqu": 8409,
      "Ġintent": 8410,
      "Ġrect": 8411,
      "ĠBusiness": 8412,
      "Ġdedicated": 8413,
      "ecycle": 8414,
      "Ġmunicip": 8415,
      "Ġdiscussed": 8416,
      "ashed": 8417,
      "Ġcomparison": 8418,
      "Ġcup": 8419,
      "ĠFriday": 8420,
      "ĠInternet": 8421,
      "Ġmessages": 8422,
      "Ġum": 8423,
      "Ġok": 8424,
      "ĠLicensed": 8425,
      "Ġcmd": 8426,
      "Ġrecognized": 8427,
      "Ġaircraft": 8428,
      "ĠSpring": 8429,
      "Ġpractical": 8430,
      "ĠGeorg": 8431,
      "Ġvisible": 8432,
      "iner": 8433,
      "Ġsick": 8434,
      "Ġchanging": 8435,
      "Ġcouncil": 8436,
      "Ġholds": 8437,
      "128": 8438,
      "Ġsav": 8439,
      ">().": 8440,
      "Ġ300": 8441,
      "Ġderived": 8442,
      "igan": 8443,
      "Ġeld": 8444,
      "ĠLove": 8445,
      "holder": 8446,
      "Ġstim": 8447,
      "ĠMartin": 8448,
      "ĠTeam": 8449,
      "*/": 8450,
      "Ġconfirmed": 8451,
      "elve": 8452,
      "Ġplate": 8453,
      "Ø§": 8454,
      "255": 8455,
      "Ġnoise": 8456,
      "Ġtradition": 8457,
      "ĠDevelopment": 8458,
      "Public": 8459,
      "Ġbroadcast": 8460,
      "Ġflowers": 8461,
      "ĠCommon": 8462,
      "ĠVirginia": 8463,
      "Ġphilosoph": 8464,
      "Native": 8465,
      "Ġpleasure": 8466,
      "Ġsuppose": 8467,
      "ĠZealand": 8468,
      "ĠUI": 8469,
      "Ġtransition": 8470,
      "Ġsb": 8471,
      "2020": 8472,
      "Ġsecondary": 8473,
      "ĠMedia": 8474,
      "uality": 8475,
      "through": 8476,
      "Ġsoil": 8477,
      "sq": 8478,
      "Ġhonor": 8479,
      "bind": 8480,
      "Email": 8481,
      "2019": 8482,
      "found": 8483,
      "ĠJoseph": 8484,
      "Ġinstalled": 8485,
      "ito": 8486,
      "umin": 8487,
      "Ġconfidence": 8488,
      "å·": 8489,
      "Ġdensity": 8490,
      "framework": 8491,
      "ĠLos": 8492,
      "Ġdropped": 8493,
      "\"><": 8494,
      "Gu": 8495,
      "Book": 8496,
      "connect": 8497,
      "iser": 8498,
      "Cond": 8499,
      "Ġcomposed": 8500,
      "gency": 8501,
      "Ġstarts": 8502,
      "ran": 8503,
      "ĠNov": 8504,
      "Ġsector": 8505,
      "ĠTherefore": 8506,
      "Ġresistance": 8507,
      "ĠServices": 8508,
      "Ġresear": 8509,
      "ĠJul": 8510,
      "Ġchemical": 8511,
      "ĠPlan": 8512,
      "Ġpul": 8513,
      "Ġleadership": 8514,
      "Ġcharacteristics": 8515,
      "Ġjustice": 8516,
      "ĠParliament": 8517,
      "Ġrepresents": 8518,
      "som": 8519,
      "Implement": 8520,
      "Ġrub": 8521,
      "ÅĤ": 8522,
      "Ġdiam": 8523,
      "onday": 8524,
      "Ġallowing": 8525,
      "Ġupdated": 8526,
      "ĠRequest": 8527,
      "Ġpermission": 8528,
      "Just": 8529,
      "Ġgene": 8530,
      "Ġfocused": 8531,
      "outine": 8532,
      "Ġapplicable": 8533,
      "TA": 8534,
      "nu": 8535,
      "icians": 8536,
      "Ġcars": 8537,
      "ums": 8538,
      "ĠBritain": 8539,
      "Ġtypically": 8540,
      "shell": 8541,
      "ëĬĶ": 8542,
      "Ġwestern": 8543,
      "ĠPenn": 8544,
      "nb": 8545,
      "ĠSwed": 8546,
      "Ġchallenges": 8547,
      "ĠWater": 8548,
      "Ġwalked": 8549,
      "yan": 8550,
      "å¸": 8551,
      "Ġrelatively": 8552,
      "Ġsport": 8553,
      "Ġsynt": 8554,
      "Ġentertain": 8555,
      "Ġthin": 8556,
      "Ġveget": 8557,
      "Ġbusinesses": 8558,
      "OUT": 8559,
      "kind": 8560,
      "Ġresolution": 8561,
      "001": 8562,
      "into": 8563,
      "Ġbag": 8564,
      "cmp": 8565,
      "Ġlogger": 8566,
      "wing": 8567,
      "Serialize": 8568,
      "Ġcache": 8569,
      "Ġsevere": 8570,
      "person": 8571,
      "ocus": 8572,
      "Ġ{\\": 8573,
      "Ġrelation": 8574,
      "Ġwilling": 8575,
      "ivation": 8576,
      "Ġthousands": 8577,
      "Ġbodies": 8578,
      "qt": 8579,
      "overy": 8580,
      "ĠAuthor": 8581,
      "ÅŁ": 8582,
      "Ġmeasured": 8583,
      "Ġestimated": 8584,
      "ĠReturns": 8585,
      "been": 8586,
      "Found": 8587,
      "âĪ": 8588,
      "domain": 8589,
      "ĠInput": 8590,
      ".\",": 8591,
      "Ġchap": 8592,
      "Ġsalt": 8593,
      "pay": 8594,
      "ACE": 8595,
      "Ġconven": 8596,
      "ĠForce": 8597,
      "Ġcompliance": 8598,
      "Ġvo": 8599,
      "php": 8600,
      "Ġcolors": 8601,
      "Ġmac": 8602,
      "onym": 8603,
      "ĉĠ": 8604,
      "Ġwire": 8605,
      "Ġpurposes": 8606,
      "See": 8607,
      "Constants": 8608,
      "Ġstandards": 8609,
      "REF": 8610,
      "ĠYes": 8611,
      "ĠJo": 8612,
      "resource": 8613,
      "exe": 8614,
      "store": 8615,
      "acts": 8616,
      "Ġratio": 8617,
      "Ġ1997": 8618,
      "Ġsetup": 8619,
      "Ġfan": 8620,
      "ĠFlorida": 8621,
      "Ġbread": 8622,
      "](#": 8623,
      "ĠCorpor": 8624,
      "Ġenvironmental": 8625,
      "Ġtasks": 8626,
      "Ġexpos": 8627,
      "Ġbelie": 8628,
      "vol": 8629,
      "Ġvast": 8630,
      "Ġstick": 8631,
      "Ġadopted": 8632,
      "ĠassertEquals": 8633,
      "################################": 8634,
      "ĠKingdom": 8635,
      "Ġ1996": 8636,
      "Ġduration": 8637,
      "peror": 8638,
      "Ġ75": 8639,
      "Ġmerely": 8640,
      "ati": 8641,
      "ĠFind": 8642,
      "ĠValley": 8643,
      "account": 8644,
      "Ġturning": 8645,
      "GU": 8646,
      "Â°": 8647,
      "ptr": 8648,
      "Environment": 8649,
      "fill": 8650,
      "Vol": 8651,
      "Ġfacilities": 8652,
      "TARGET": 8653,
      "Ġhomes": 8654,
      "ebx": 8655,
      "Ġ^": 8656,
      "Ġtournament": 8657,
      "aph": 8658,
      "ĠFoot": 8659,
      "CI": 8660,
      "Ġdegrees": 8661,
      "ĠPlease": 8662,
      "ĠItem": 8663,
      "ferences": 8664,
      "([": 8665,
      "aver": 8666,
      "Ð´": 8667,
      "Ġgrass": 8668,
      "åĢ": 8669,
      "Ġresidents": 8670,
      "than": 8671,
      "Information": 8672,
      "ĠChief": 8673,
      "bad": 8674,
      "VM": 8675,
      "display": 8676,
      "Gen": 8677,
      "ãģĹãģ": 8678,
      "Ġdocuments": 8679,
      "etes": 8680,
      "Ð°Ð½": 8681,
      "full": 8682,
      "sys": 8683,
      "ni": 8684,
      "Ġachieved": 8685,
      "Ġdrawing": 8686,
      "media": 8687,
      "Ġasp": 8688,
      "Ġcorresponding": 8689,
      "ega": 8690,
      "Ġoffering": 8691,
      "ĠPage": 8692,
      "Ġproud": 8693,
      "Ġcompos": 8694,
      "Ġsettlement": 8695,
      "ĠTrue": 8696,
      "Material": 8697,
      "zy": 8698,
      "ĠNode": 8699,
      "effect": 8700,
      "ilation": 8701,
      "Ġengaged": 8702,
      "ĠSol": 8703,
      "ĠElect": 8704,
      "Ġhorses": 8705,
      "bec": 8706,
      "rig": 8707,
      "Users": 8708,
      "oster": 8709,
      "graph": 8710,
      "Ġjudge": 8711,
      "Ġtemplate": 8712,
      "Ġpractices": 8713,
      "ĠEnter": 8714,
      "ressive": 8715,
      "yal": 8716,
      "Ġauto": 8717,
      "Pop": 8718,
      "ç§": 8719,
      "Pair": 8720,
      "Ġcandidate": 8721,
      "ĠHaw": 8722,
      "step": 8723,
      "Ġcopies": 8724,
      "ĠManagement": 8725,
      "Ġunable": 8726,
      "aret": 8727,
      "Ġacquired": 8728,
      "Ġholid": 8729,
      "ĠNote": 8730,
      "Ġpromin": 8731,
      "orted": 8732,
      "Ġwatching": 8733,
      "Ignore": 8734,
      "door": 8735,
      "Äĩ": 8736,
      "Ġwarning": 8737,
      "ä½¿": 8738,
      "Ġlimitations": 8739,
      "Ġlayout": 8740,
      "encing": 8741,
      "Ġstruck": 8742,
      "Will": 8743,
      "ĠSand": 8744,
      "Ġrom": 8745,
      "Ġbirds": 8746,
      "ideos": 8747,
      "lat": 8748,
      "Ġphoto": 8749,
      "yy": 8750,
      "Ġminister": 8751,
      "Ġvel": 8752,
      "ĠNone": 8753,
      "Ġclosely": 8754,
      "Ġprompt": 8755,
      "ĠCreat": 8756,
      "iminal": 8757,
      "Ġfly": 8758,
      "Ġreviews": 8759,
      "Memory": 8760,
      "CM": 8761,
      "eding": 8762,
      "elle": 8763,
      "Ġwalking": 8764,
      "ĠWARRANTIES": 8765,
      "icial": 8766,
      "lik": 8767,
      "300": 8768,
      "uations": 8769,
      "een": 8770,
      "Ġwidely": 8771,
      "legal": 8772,
      "mathbf": 8773,
      "ugins": 8774,
      "dt": 8775,
      "kit": 8776,
      "Ġprices": 8777,
      "types": 8778,
      "mond": 8779,
      "Ġ42": 8780,
      "eting": 8781,
      "iana": 8782,
      "uri": 8783,
      "nic": 8784,
      "access": 8785,
      "Ġgovern": 8786,
      "Ġhearing": 8787,
      "ellect": 8788,
      "Ġtall": 8789,
      "++;": 8790,
      "........": 8791,
      "Ġraw": 8792,
      "Ġtaste": 8793,
      "FileName": 8794,
      "HOUT": 8795,
      "Ġindepend": 8796,
      "Ġdomin": 8797,
      "ĠBoston": 8798,
      "Day": 8799,
      "ĠSign": 8800,
      "Ã¦": 8801,
      "ped": 8802,
      "ben": 8803,
      "Ġourselves": 8804,
      "ĠLibrary": 8805,
      "Ġfighting": 8806,
      "Ġgather": 8807,
      "Ġassociation": 8808,
      "Ġrecip": 8809,
      "More": 8810,
      "entials": 8811,
      "Ġ1960": 8812,
      "EP": 8813,
      "Ġemphas": 8814,
      "ican": 8815,
      "Ġsky": 8816,
      "eral": 8817,
      "According": 8818,
      "Early": 8819,
      "Tim": 8820,
      "craft": 8821,
      "dy": 8822,
      "Ġkid": 8823,
      "comes": 8824,
      "issions": 8825,
      "razil": 8826,
      "Ġrooms": 8827,
      "Ġcoupl": 8828,
      "FIG": 8829,
      "ĠAsia": 8830,
      "ONE": 8831,
      "Ġ($": 8832,
      "Ġclaimed": 8833,
      "fd": 8834,
      "Ġexit": 8835,
      "URE": 8836,
      "ILITY": 8837,
      "law": 8838,
      "lie": 8839,
      "Assembly": 8840,
      "Ġmagazine": 8841,
      "Ġhappens": 8842,
      "ĠFacebook": 8843,
      "Ġcrowd": 8844,
      "tenance": 8845,
      "License": 8846,
      "ĠArts": 8847,
      "Ġhelping": 8848,
      "ĠSuch": 8849,
      "Wait": 8850,
      "Ġlargely": 8851,
      "Ġpassword": 8852,
      "ĠSpecial": 8853,
      "ĠJewish": 8854,
      "SQL": 8855,
      "Ġos": 8856,
      "Ġacademic": 8857,
      "ĠYet": 8858,
      "Ġsan": 8859,
      "çī": 8860,
      "ĠControl": 8861,
      "Ġcards": 8862,
      "Ġworse": 8863,
      "ĠĠĠĠĠĠĠĠĠĠĠĠĠĠĠĠĠĠĠĠĠĠ": 8864,
      "Ġputting": 8865,
      "Ġdelivery": 8866,
      "Helpers": 8867,
      "Ġmal": 8868,
      "ĠCross": 8869,
      "ĠĠĠĠĠĠĠĠĠĠĠĠĠĠĠĠĠĠĠĠĠĠĠĠ": 8870,
      "Ġregional": 8871,
      "è¿Ļ": 8872,
      "zed": 8873,
      "Ġpayment": 8874,
      "AF": 8875,
      "sem": 8876,
      "func": 8877,
      "pool": 8878,
      "ilde": 8879,
      "bled": 8880,
      "ICE": 8881,
      "^{\\": 8882,
      "ĠRo": 8883,
      "Route": 8884,
      "Ġcontained": 8885,
      "mail": 8886,
      "ishment": 8887,
      "points": 8888,
      "uns": 8889,
      "Ġcommonly": 8890,
      "Ġ@\"": 8891,
      "Ġsuffered": 8892,
      "Ġvisited": 8893,
      "Ġpowers": 8894,
      "Ġ\"...": 8895,
      "Ġgate": 8896,
      "Ġrid": 8897,
      "Ġevil": 8898,
      "ĠBlue": 8899,
      "Ġcoffee": 8900,
      "scribe": 8901,
      "icked": 8902,
      "yer": 8903,
      "Big": 8904,
      "erves": 8905,
      "General": 8906,
      "Ġcorn": 8907,
      "Ġkotlinx": 8908,
      "Ġproperly": 8909,
      "Ġaspects": 8910,
      "eness": 8911,
      "shal": 8912,
      "ĠProt": 8913,
      "Anchor": 8914,
      "Ġattribute": 8915,
      "ĠAnother": 8916,
      "dl": 8917,
      "ampion": 8918,
      "anes": 8919,
      "bot": 8920,
      "Ġfault": 8921,
      "Ġgrown": 8922,
      "achment": 8923,
      "ĠMS": 8924,
      "Ġcrime": 8925,
      "Ġdesired": 8926,
      "ĠSouthern": 8927,
      "ira": 8928,
      "ĠIns": 8929,
      "Ġglo": 8930,
      "Ġindicate": 8931,
      "Ġenum": 8932,
      "close": 8933,
      "Ġconcerned": 8934,
      "ĠJava": 8935,
      "High": 8936,
      "usp": 8937,
      "Ġphotos": 8938,
      "ĠHead": 8939,
      "Rot": 8940,
      "Ġtone": 8941,
      "ĠHon": 8942,
      "abeth": 8943,
      "Ġlinear": 8944,
      "windows": 8945,
      "Ġexcited": 8946,
      "Ġcraft": 8947,
      "your": 8948,
      "writer": 8949,
      "Ġundert": 8950,
      "Ġdecor": 8951,
      "Ġteachers": 8952,
      ">\",": 8953,
      "Ġofficials": 8954,
      "Ġbegins": 8955,
      "oviet": 8956,
      "¦Ĥ": 8957,
      "great": 8958,
      "Ġtopic": 8959,
      "Fail": 8960,
      "Ġenabled": 8961,
      "Ġconcert": 8962,
      "reshold": 8963,
      "Ġreceiving": 8964,
      "ä¾": 8965,
      "Ġassigned": 8966,
      "Ġsymptoms": 8967,
      "posable": 8968,
      "Ġjobs": 8969,
      "ribution": 8970,
      "Ġ255": 8971,
      "appy": 8972,
      "rors": 8973,
      "Ġsought": 8974,
      "Ġcris": 8975,
      "Ġvit": 8976,
      "Ġgained": 8977,
      "onel": 8978,
      "ĠÐ¸": 8979,
      "usic": 8980,
      "append": 8981,
      "GetValue": 8982,
      "ĠLight": 8983,
      "ando": 8984,
      "rivers": 8985,
      "ĠTre": 8986,
      "Ġaren": 8987,
      "uce": 8988,
      "Ġmultip": 8989,
      "ĠSecurity": 8990,
      "ĠAM": 8991,
      "Ġ49": 8992,
      "patch": 8993,
      "Policy": 8994,
      "Ġversions": 8995,
      "GetString": 8996,
      "å¯¹": 8997,
      "har": 8998,
      "Ġshock": 8999,
      "ograp": 9000,
      "temp": 9001,
      "ĠLatin": 9002,
      "}\"": 9003,
      "ĠMiddle": 9004,
      "Î±": 9005,
      "Ġrepro": 9006,
      "Replace": 9007,
      "Direction": 9008,
      "!!.": 9009,
      "Headers": 9010,
      "æĪĲ": 9011,
      "/)": 9012,
      "ĠWed": 9013,
      "Ġride": 9014,
      "ĠIV": 9015,
      "Ġspr": 9016,
      "NT": 9017,
      "Ġplanned": 9018,
      "Ġdrew": 9019,
      "Trace": 9020,
      "Ġsegment": 9021,
      "Ġsmile": 9022,
      "Ġstands": 9023,
      "ĠSar": 9024,
      "made": 9025,
      "Ġcash": 9026,
      "IsNullOrEmpty": 9027,
      "Ġboot": 9028,
      "agers": 9029,
      "Ġprospect": 9030,
      "Ġaccounts": 9031,
      "Ġyounger": 9032,
      "hard": 9033,
      "Ġ801": 9034,
      "2017": 9035,
      "Miss": 9036,
      "ĠâĪ·": 9037,
      "Ġslot": 9038,
      "Ġcro": 9039,
      "mock": 9040,
      "Ġevident": 9041,
      "ĠMen": 9042,
      "ĠEditor": 9043,
      "Ġvary": 9044,
      "ĠLike": 9045,
      "Ġindustrial": 9046,
      "estion": 9047,
      "Ġdestination": 9048,
      "require": 9049,
      "Ġ1995": 9050,
      "Ġpatterns": 9051,
      "Ġven": 9052,
      "xmm": 9053,
      "ĠEll": 9054,
      "ìĦ": 9055,
      "Ġcapable": 9056,
      "iture": 9057,
      "ĠLiber": 9058,
      "Ġbiggest": 9059,
      "Boolean": 9060,
      "kl": 9061,
      "CB": 9062,
      "Ġexceed": 9063,
      "Ġattached": 9064,
      "ĠValid": 9065,
      "Ġfant": 9066,
      "Ġfuel": 9067,
      "ĠNorthern": 9068,
      "ĠÏ": 9069,
      "PM": 9070,
      "bound": 9071,
      "ĠDouble": 9072,
      "Ġhardly": 9073,
      "Ġviolence": 9074,
      "stat": 9075,
      "xc": 9076,
      "Ret": 9077,
      "Ġteach": 9078,
      "Ġsevent": 9079,
      "ĠLee": 9080,
      "Ġabsor": 9081,
      "Ġarchitecture": 9082,
      "åĪ°": 9083,
      "ĠAngeles": 9084,
      "ĠConf": 9085,
      "Ġcommitted": 9086,
      "Power": 9087,
      "Ġyards": 9088,
      "IST": 9089,
      "Serializer": 9090,
      "Identifier": 9091,
      "Ġ\",": 9092,
      "Ġreaction": 9093,
      "PER": 9094,
      "Ġunderstood": 9095,
      "Ġconstra": 9096,
      "Ġfriendly": 9097,
      "Ġconsiderable": 9098,
      "ĠRegion": 9099,
      "Ġ{'": 9100,
      "SY": 9101,
      "Ġbatt": 9102,
      "Ġroles": 9103,
      "Ġchapter": 9104,
      "Ġodd": 9105,
      "hl": 9106,
      "ima": 9107,
      "outs": 9108,
      "Fig": 9109,
      "fraid": 9110,
      "ĠYoung": 9111,
      "ĠEnvironment": 9112,
      "ila": 9113,
      "CHAPTER": 9114,
      "ĠWITHOUT": 9115,
      "ĠFestival": 9116,
      "rous": 9117,
      "heast": 9118,
      "Ġsurprise": 9119,
      "Ġpapers": 9120,
      "ĠColumb": 9121,
      "Validation": 9122,
      "Light": 9123,
      "ilst": 9124,
      "Ġele": 9125,
      "Your": 9126,
      "circ": 9127,
      "osph": 9128,
      "ĠGlobal": 9129,
      "Ġsle": 9130,
      "Animation": 9131,
      "Ġdisappe": 9132,
      "figure": 9133,
      "Hub": 9134,
      "íķĺ": 9135,
      "Pub": 9136,
      "Ġmask": 9137,
      "such": 9138,
      "Ġstead": 9139,
      "Ġsuit": 9140,
      "Ġrecommended": 9141,
      "SW": 9142,
      "don": 9143,
      "Ġinspired": 9144,
      "Ġenjoyed": 9145,
      "åĴ": 9146,
      "Ġ\"%": 9147,
      "iano": 9148,
      "Ġbtn": 9149,
      "bx": 9150,
      "Ġgreatly": 9151,
      "urally": 9152,
      "ĠSea": 9153,
      "Plugin": 9154,
      "ARY": 9155,
      "Ġoccurs": 9156,
      "iro": 9157,
      "Execution": 9158,
      "ÐµÑĢ": 9159,
      "Ð¿": 9160,
      "Ġsugar": 9161,
      "Ġox": 9162,
      "uv": 9163,
      "Ġdraft": 9164,
      "LICENSE": 9165,
      "Ġguarant": 9166,
      "Ġsurgery": 9167,
      "osc": 9168,
      "Ġmsg": 9169,
      "Ġhill": 9170,
      "iest": 9171,
      "Ġagric": 9172,
      "PT": 9173,
      "may": 9174,
      "Ġcycle": 9175,
      "Ġabandon": 9176,
      "ĠPacific": 9177,
      "Ġheads": 9178,
      "ĉĠĠĠ": 9179,
      "Ġsigns": 9180,
      "wan": 9181,
      "SR": 9182,
      "Pool": 9183,
      "Ġvolunte": 9184,
      "ulous": 9185,
      "utter": 9186,
      "icing": 9187,
      "ĠÐ½": 9188,
      "Ġ(%": 9189,
      "front": 9190,
      "Dist": 9191,
      "ãĤ¹": 9192,
      "SM": 9193,
      "Ġafraid": 9194,
      "enario": 9195,
      "sigma": 9196,
      "ceptor": 9197,
      "present": 9198,
      "Ġearned": 9199,
      "oking": 9200,
      "Ġmodify": 9201,
      "ĠAndroid": 9202,
      "Seconds": 9203,
      "Ġimplied": 9204,
      "ĠHy": 9205,
      "Ġarrang": 9206,
[...]
